[PAD]
[UNK]
[CLS]
[MASK]
[SEP]
!
"
#
$
%
&
'
(
)
*
+
,
-
.
/
0
1
2
3
4
5
6
7
8
9
:
;
<
=
>
?
@
A
B
C
D
E
F
G
H
I
J
K
L
M
N
O
P
Q
R
S
T
U
V
W
X
Y
Z
[
\
]
^
_
`
a
b
c
d
e
f
g
h
i
j
k
l
m
n
o
p
q
r
s
t
u
v
w
x
y
z
{
|
}
~
¡
¢
£
¤
¥
¦
§
¨
©
ª
«
¬
®
¯
°
±
²
³
´
µ
¶
·
¸
¹
º
»
¼
½
¾
¿
Æ
Ð
×
Ø
Þ
ß
æ
ð
÷
ø
þ
Đ
đ
ı
Ł
ł
ŋ
Œ
œ
ŧ
ƒ
ƛ
Ɵ
ǝ
ɐ
ɔ
ə
ɛ
ɢ
ɥ
ɪ
ɴ
ɹ
ʀ
ʇ
ʜ
ʟ
ʰ
ʳ
ʺ
ˆ
ˇ
ˈ
ˋ
˘
˙
˚
˛
˜
˝
ˢ
Α
Γ
Δ
Ε
Ζ
Η
Θ
Ι
Κ
Λ
Μ
Ξ
Ο
Π
Ρ
Σ
Τ
Υ
Φ
Ψ
Ω
α
β
γ
δ
ε
ζ
η
θ
ι
κ
λ
μ
ν
ξ
ο
π
ρ
ς
σ
τ
υ
φ
χ
ψ
ω
ϕ
ϴ
ϵ
Ђ
Ѕ
І
Ј
Ћ
А
Б
В
Г
Д
Е
Ж
З
И
К
Л
М
Н
О
П
Р
С
Т
У
Ф
Х
Ц
Ч
Ш
Ы
Э
Ю
Я
а
б
в
г
д
е
ж
з
и
к
л
м
н
о
п
р
с
т
у
ф
х
ц
ч
ш
щ
ъ
ы
ь
э
ю
я
ђ
є
ѕ
і
ј
ћ
҉
Ґ
ә
Ө
א
ב
ג
ד
ה
ו
ז
ח
ט
י
כ
ל
ם
מ
ן
נ
ס
ע
פ
צ
ק
ר
ש
ת
׳
،
؟
ء
ا
ب
ة
ت
ث
ج
ح
خ
د
ذ
ر
ز
س
ش
ص
ض
ط
ظ
ع
غ
ـ
ف
ق
ك
ل
م
ن
ه
و
ى
ي
٠
١
٢
٣
٤
٥
٦
٨
٩
پ
چ
ک
گ
ں
ھ
ہ
ی
ے
ە
۰
۱
۲
۳
۴
۵
अ
आ
क
ख
ग
च
ज
ट
ड
त
द
ध
न
प
ब
भ
म
य
र
ल
व
श
ष
स
ह
ा
ि
ी
ो
।
१
ক
ত
ন
ব
ম
য
র
ল
া
ি
ে
਍
ર
ા
அ
க
ச
ட
த
ன
ப
ம
ய
ர
ல
வ
ா
ி
ு
ெ
ே
ை
ం
త
న
ర
ల
ు
ಠ
ം
അ
ക
ങ
ച
ട
ണ
ത
ദ
ന
പ
ബ
മ
യ
ര
റ
ല
ള
വ
ഷ
സ
ാ
ി
ീ
െ
േ
ก
ค
ง
ณ
ด
ต
ถ
ท
น
บ
ป
ม
ย
ร
ล
ว
ส
อ
ะ
า
เ
ไ
ა
ე
ვ
ი
რ
ს
ᄀ
ᄂ
ᄃ
ᄅ
ᄆ
ᄇ
ᄈ
ᄉ
ᄊ
ᄋ
ᄌ
ᄍ
ᄎ
ᄏ
ᄐ
ᄑ
ᄒ
ᅡ
ᅢ
ᅥ
ᅦ
ᅧ
ᅨ
ᅩ
ᅪ
ᅬ
ᅭ
ᅮ
ᅯ
ᅰ
ᅱ
ᅲ
ᅳ
ᅴ
ᅵ
ᆨ
ᆫ
ᆮ
ᆯ
ᆷ
ᆸ
ᆺ
ᆻ
ᆼ
ᆿ
ᇂ
ន
ា
ᴀ
ᴄ
ᴅ
ᴇ
ᴍ
ᴏ
ᴘ
ᴛ
ᴜ
ᵃ
ᵉ
ᵒ
ᵗ
ᵢ
‐
‑
–
—
―
‖
‘
’
‚
“
”
„
†
‡
•
‣
…
‰
′
″
‹
›
※
‾
⁄
⁰
ⁱ
⁴
⁵
⁶
⁷
⁸
⁹
⁺
⁻
ⁿ
₀
₁
₂
₃
₄
ₖ
₧
€
₹
⃣
ℕ
№
ℝ
™
ℤ
←
↑
→
↓
↔
↩
↵
⇒
⇔
⇥
⇧
∀
∂
∃
∅
∆
∈
∏
∑
−
∗
∘
∙
√
∞
∟
∧
∨
∩
∪
∫
∷
≅
≈
≡
≤
≥
⊂
⊃
⊆
⊕
⊗
⊘
⊢
⊤
⊥
⋅
⋈
⋮
⋯
⌃
⌈
⌉
⌊
⌋
⌘
⌥
⎕
⏎
␊
␣
①
②
─
━
│
┌
┐
└
┘
├
┤
┬
┴
┻
┼
═
║
╔
╗
╚
╝
╟
╠
╢
╣
╤
╦
╧
╨
╩
╪
╫
╬
▀
▄
▇
█
░
▒
▓
■
□
▪
▫
▬
▲
▶
▸
►
▼
◀
◄
◊
○
●
◦
☃
★
☆
☐
☑
☠
☹
☺
☻
♀
♂
♟
♠
♣
♥
♦
♫
♯
⚠
✅
✓
✔
✖
✗
✘
❤
➔
➜
➝
➞
➡
⟨
⟩
⟶
⟹
⠀
⸀
、
。
〈
〉
《
》
「
」
【
】
あ
い
う
え
お
か
き
く
け
こ
さ
し
す
せ
そ
た
ち
っ
つ
て
と
な
に
の
は
ひ
ま
も
よ
ら
り
る
れ
を
ん
ア
イ
ウ
カ
キ
ク
コ
サ
シ
ス
タ
ッ
ツ
テ
ト
ハ
ヒ
フ
ヘ
ホ
ラ
リ
ル
ロ
ン
・
ー
ㅏ
ㅡ
一
三
上
下
不
世
个
中
么
了
二
京
人
以
件
会
位
体
作
你
使
信
入
全
公
出
分
別
到
前
力
動
北
単
参
发
口
可
号
名
和
哈
国
在
地
場
外
多
大
天
好
子
字
学
安
定
市
年
开
愀
成
我
所
挀
接
攀
数
文
新
方
无
日
时
明
是
時
最
月
有
未
本
果
椀
每
決
法
测
渀
漀
漢
爀
琀
理
生
用
男
界
的
目
県
码
硼
程
立
端
第
置
能
自
行
要
覺
解
語
试
语
误
请
贸
足
路
这
速
造
部
重
错
面
ﬀ
ﬁ
ﬂ
﹕
ﻮ
﻾
！
（
）
，
－
．
１
２
９
：
；
＝
？
ａ
ｅ
ｔ
～
ﾟ
￼
##e
##t
##S
##u
##b
##l
##a
##y
##r
##T
##n
##s
##f
##o
##m
##i
##3
##0
##L
##A
##j
##c
##U
##I
##g
##4
##1
##2
##B
##E
##x
##H
##d
##9
##6
##5
##D
##h
##C
##v
##z
##P
##F
##p
##k
##N
##w
##O
##7
##8
##V
##K
##M
##R
##¼
##Œ
##W
##J
##Q
##X
##Z
##Y
##G
##q
##€
##ا
##س
##イ
##ƒ
##ˆ
##´
##ன
##ு
##வ
##ை
##д
##о
##р
##¤
##™
##×
##С
##ര
##Ð
##°
##¦
##ش
##ع
##ب
##ه
##⌘
##н
##ф
##м
##ह
##त
##م
##ح
##ف
##ظ
##ة
##¾
##³
##ย
##น
##₁
##Ł
##˘
##═
##╤
##╗
##£
##→
##θ
##©
##↓
##ि
##र
##¨
##Ø
##æ
##е
##т
##а
##и
##ל
##פ
##י
##ם
##˜
##द
##स
##ß
##у
##с
##к
##˚
##☻
##±
##ı
##ª
##¸
##б
##в
##ь
##я
##½
##г
##з
##¢
##ц
##²
##ᅥ
##ᆨ
##ᄇ
##ᅡ
##ᆼ
##л
##ø
##Æ
##⁰
##ك
##و
##ن
##د
##ج
##ز
##ე
##რ
##ა
##¬
##÷
##ر
##ک
##ي
##ⁿ
##て
##い
##る
##か
##ﬂ
##−
##п
##х
##ง
##ш
##タ
##フ
##µ
##☐
##¥
##œ
##א
##ˇ
##º
##®
##た
##ま
##ร
##ก
##─
##│
##あ
##ת
##Ω
##˝
##╧
##¹
##Þ
##ð
##þ
##च
##न
##ᅪ
##म
##ल
##˛
##ل
##ض
##ч
##┼
##╢
##ت
##も
##に
##ᅢ
##╦
##ถ
##♠
##₂
##υ
##ᄌ
##ᅵ
##ᄋ
##ᅲ
##ᆫ
##ו
##נ
##ℤ
##ᄉ
##ᆯ
##←
##⁷
##ذ
##ा
##ᄎ
##ι
##π
##ο
##τ
##α
##ध
##व
##ट
##า
##เ
##ล
##ی
##ᄊ
##ᆿ
##ﬁ
##െ
##യ
##പ
##ന
##ю
##ᅩ
##ᅬ
##ᆸ
##ᄂ
##ᄃ
##ε
##▒
##├
##┤
##␊
##λ
##☺
##پ
##Đ
##ാ
##ച
##ി
##മ
##ం
##भ
##¯
##┐
##҉
##ર
##Ђ
##Д
##ᄏ
##ᄐ
##ర
##న
##ق
##ी
##ા
##ᄒ
##ы
##਍
##ᅮ
##ط
##Ј
##ー
##ク
##╬
##╣
##ട
##μ
##Ο
##⁸
##ス
##リ
##ω
##σ
##ハ
##η
##ہ
##￼
##₄
##ⁱ
##ŋ
##И
##ണ
##ക
##κ
##┘
##ρ
##χ
##ν
##↵
##ല
##ബ
##♥
##ھ
##≡
##◀
##ᅦ
##خ
##ณ
##١
##і
##Р
##ѕ
##∈
##ł
##ი
##₃
##ר
##ש
##У
##К
##ς
##₀
##ト
##ি
##ল
##া
##コ
##ს
##ม
##ไ
##ป
##บ
##ค
##อ
##ว
##≤
##ు
##đ
##ט
##し
##す
##⋅
##∩
##└
##■
##☆
##ᅧ
##ᅴ
##ᅯ
##ᇂ
##ত
##ो
##ष
##ה
##צ
##╩
##╝
##ص
##ᄍ
##ん
##ひ
##⁻
##ᄑ
##さ
##ק
##ס
##מ
##ᆷ
##ᄅ
##ᅳ
##➡
##▶
##║
##ᄀ
##▇
##⊂
##ـ
##╫
##ג
##ज
##√
##ъ
##ᄆ
##ᆮ
##ᅱ
##ᆺ
##ʺ
##∃
##ต
##∞
##↑
##ட
##ி
##க
##Г
##⇧
##य
##の
##േ
##ത
##ב
##ങ
##ം
##گ
##ɹ
##ల
##ম
##ท
##Ґ
##Е
##ә
##ｅ
##れ
##ʇ
##こ
##ヘ
##シ
##∫
##∂
##˙
##∆
##ദ
##ള
##⚠
##ᅰ
##ন
##う
##く
##っ
##ら
##ж
##ŧ
##┴
##░
##ד
##ן
##റ
##ग
##ʀ
##ʟ
##כ
##щ
##ᵢ
##ᴇ
##ᴀ
##ᴄ
##Н
##വ
##ə
##り
##є
##ے
##∘
##ホ
##ツ
##ロ
##∑
##け
##ெ
##Ψ
##ம
##♦
##な
##ᴘ
##♫
##ᵒ
##ʳ
##Т
##В
##А
##Л
##⁵
##٢
##∙
##ɪ
##ラ
##＝
##త
##ब
##ɐ
##ɥ
##δ
##∗
##٣
##٤
##ീ
##സ
##Ф
##Ρ
##Ι
##Κ
##Η
##З
##▀
##▄
##█
##Θ
##۰
##ʰ
##ᵃ
##ᵗ
##ด
##ㅡ
##Ћ
##╔
##ะ
##ａ
##چ
##ウ
##キ
##ח
##ە
##ｔ
##１
##２
##９
##য
##ส
##ث
##━
##▼
##♀
##ख
##ᵉ
##せ
##★
##┌
##⋯
##Μ
##⁄
##क
##ड
##▓
##►
##ഷ
##┬
##ン
##φ
##と
##ء
##⌥
##は
##♣
##М
##І
##Ө
##ע
##ξ
##ζ
##カ
##∟
##↔
##▲
##۴
##ᅨ
##ᆻ
##غ
##٩
##٨
##Τ
##⊗
##⁹
##ђ
##Б
##ψ
##ћ
##ᴏ
##ᴍ
##ɴ
##ா
##ர
##◄
##ক
##⏎
##ϴ
##ち
##∧
##⊕
##ى
##ន
##ា
##प
##श
##⁴
##ვ
##≈
##О
##γ
##ッ
##◊
##ル
##╠
##Γ
##Σ
##э
##♯
##き
##つ
##⌃
##Ѕ
##ﬀ
##テ
##Ж
##ᴛ
##⊤
##⇒
##₧
##ல
##≥
##♟
##ㅏ
##ᅭ
##Ξ
##Ε
##を
##そ
##Α
##ז
##∏
##۱
##ˢ
##╨
##□
##╚
##٠
##ᴜ
##β
##↩
##サ
##ˋ
##Ζ
##∨
##র
##ে
##⇥
##Э
##Δ
##②
##ப
##த
##ய
##ヒ
##⊆
##ア
##ˈ
##ј
##ﾟ
##よ
##␣
##▬
##ச
##ᄈ
##⠀
##⁶
##ே
##Υ
##ɢ
##ʜ
##⁺
##ব
##ﻮ
##╪
##ᴅ
##❤
##⟶
##۵
##ɛ
##○
##✅
##Φ
##Π
##☠
##⃣
##え
##お
##∷
##П
##Х
##Ц
##Ч
##Ш
##Ы
##Ю
##Я
##➞
##Λ
##⎕
##◦
##ɔ
##➜
##१
##आ
##ǝ
##ں
##▫
##∀
##☹
##ₖ
##№
##┻
##۲
##☃
##۳
##⋮
##●
##Ɵ
##①
##∅
##～
##ϕ
##⊘
##⊥
##∪
##✓
##✔
##➔
##٦
##♂
##٥
##ℕ
##⊃
##➝
##ƛ
##ℝ
##╟
##▸
##⇔
##﻾
##✖
##अ
##☑
##✗
##✘
##ϵ
##▪
##ಠ
##≅
##அ
##₹
##⟹
##⋈
##⊢
th
##er
the
##in
##at
##on
##ou
##es
##or
to
##ing
##en
##le
an
##an
##ed
in
##it
##ll
##ion
##re
##is
##ro
is
##et
##ct
you
##ar
and
##as
##ut
##ic
it
##ow
of
##om
##ent
##ve
##al
##st
##ot
us
re
on
wh
that
be
##od
for
##ld
##am
this
##ith
ha
##ay
##ly
Th
##ac
st
##ble
pro
with
##ad
##id
do
##ere
can
##pp
##ag
##ation
have
fi
##ate
con
##ver
as
##ould
##se
not
##all
ex
##ce
##ke
##ec
##im
##ter
##ect
but
##ig
com
##est
ne
##ess
##ode
##un
or
lo
##ur
##ment
##ch
your
##ri
##em
##nd
li
se
my
##ol
##ul
##pt
##ill
##ple
ch
are
de
##ork
##rom
use
sh
su
##ant
##th
##age
app
cl
##ers
##ame
##il
if
som
The
from
##pl
##if
tr
##ction
##able
##ata
work
get
##ust
using
like
##ain
code
will
##ally
##eth
##ue
al
po
##um
##ass
##ist
all
##ore
##ich
ad
##ject
##ie
need
want
data
##ase
which
at
##ind
so
##rr
##and
im
any
##ang
cont
we
by
You
when
##ex
##ine
would
##ach
some
##op
there
##out
am
##end
ma
##fer
##ok
##ack
file
##ort
val
ht
##art
##av
qu
add
##ult
##so
##ht
##el
##qu
one
en
##ir
set
##iew
then
If
int
In
how
way
fo
##ated
res
me
inst
cre
##per
out
should
up
fun
##ab
ser
##ite
##ight
##cc
Wh
##iv
what
##ery
##ive
function
sc
##ide
try
just
does
##iz
sp
##ime
##ication
has
ab
##tp
This
don
##act
only
go
##ink
##ire
class
##blem
##bject
##ethod
##les
##ound
##orm
run
##ure
str
##ther
It
problem
##lo
http
##ity
##yp
##ap
method
##ss
##ext
##rror
wr
##gr
##au
##ile
##ice
comp
chang
##ting
##00
user
##now
##ead
pl
##ace
##ord
##our
look
call
was
##ample
same
##oth
new
other
##ail
##oug
un
##ick
##ript
know
##ari
##ions
##llow
error
sim
object
##ial
ev
time
follow
How
##lication
##ory
ret
##one
id
##urn
could
##int
##eck
into
##ser
no
##ause
##ard
also
value
##ough
bu
##ies
typ
dif
more
acc
So
##ary
##form
make
##ck
##ost
ar
def
par
requ
##ud
dis
page
form
col
list
example
see
##ong
fir
pr
##ows
application
##read
##put
##ber
ke
man
##us
sol
per
##nt
server
them
differ
here
first
##led
le
bec
##ast
##ign
##og
create
##cl
##ove
return
##ond
##ml
web
##ild
check
##ose
trying
##ont
##ething
##ible
##ence
pre
##rray
each
ve
##fter
where
But
##ep
##elp
##ance
tw
following
##os
##ener
comm
##ava
something
test
##ip
about
find
##ans
string
##irect
num
##ments
read
table
view
##ath
spec
help
vari
##ell
log
##ever
because
##lect
sy
##uct
act
bet
##own
rec
##very
And
##tr
##vice
project
text
##ient
##ption
##ution
##vel
inter
they
proper
quest
##ems
##ues
##ub
##roll
than
##low
used
doc
##ize
My
different
part
##are
##base
two
back
##ull
conf
over
##urr
array
##ug
tri
##te
start
##ically
##ition
exp
ele
##ton
works
name
und
may
##ages
type
##ff
files
cor
result
##row
##ox
Is
##ning
##ating
change
##ress
ph
##ays
##cess
ind
##ens
think
##ous
rem
every
##ually
gener
lib
after
case
gr
sec
##ty
##gram
loc
specif
sub
##atch
doesn
##ual
line
pass
poss
vers
When
##ument
iss
question
imple
For
rep
##cript
##other
contain
bas
##fore
load
mod
its
##alled
key
database
##pen
##urrent
working
aut
##ak
access
##oc
implement
##ates
link
direct
tried
des
An
image
under
##arch
fe
sure
##nect
thing
##sw
##ource
program
select
##ake
##rect
##ry
##ML
click
hand
button
js
em
##ations
##rib
number
solution
supp
upd
##umn
answ
##str
these
What
possible
##ook
##eld
att
##ount
##ute
##enc
##ving
script
process
Here
now
able
field
event
another
##thing
refer
values
##dit
instead
##ft
query
displ
##QL
##odel
point
##stem
request
##lease
##side
##clud
reg
correct
##ince
##ks
mess
version
There
ag
column
without
St
mem
dec
before
right
fr
build
show
post
##View
down
##ave
As
end
##ator
current
##ustom
html
On
config
##velop
very
thr
##ault
ass
libr
##ree
found
been
connect
exec
##roid
##tern
second
might
##ia
issue
display
##roller
##der
##rol
still
through
answer
includ
##up
even
##sing
content
##ear
mult
Al
Java
char
However
variable
param
open
did
write
simple
##01
eas
We
document
##ert
state
prov
php
put
really
##arg
##ables
det
##lf
##work
Pro
av
##ular
blo
command
##we
both
doing
bit
##ails
net
To
##indows
thread
such
##tc
why
develop
called
giv
##ish
client
##plo
dep
##PI
main
exce
etc
seems
custom
imp
##ob
##ied
##itt
##gg
input
being
rel
below
HT
##wn
search
output
##load
Ch
running
well
send
defin
Ex
##lder
fine
##ib
##not
created
above
ide
element
default
##ative
trans
order
brow
gu
index
support
paramet
##ween
##ably
good
comple
multi
getting
between
https
##ogle
10
##ax
##yn
model
##formation
API
inside
##ved
UI
library
many
appro
depend
##idd
##ote
##uch
loop
happ
##ready
##ise
own
##res
Re
##yth
java
##ython
nam
##par
since
already
underst
he
Now
ll
##ger
App
##ra
##ify
install
##ious
better
exist
##ingle
system
##ome
##erm
##io
##ways
say
control
SQL
again
sugg
much
suggest
Then
resp
oper
ent
had
size
information
fix
those
dele
memory
their
cons
##ider
prod
##Cont
path
while
##ET
red
source
understand
##ither
property
##ule
stor
##ason
local
##xt
##self
perform
div
expl
stat
mak
tem
having
setting
##ql
message
done
##ash
instance
most
single
Ser
tag
based
always
long
update
conver
##ade
service
head
cop
prob
init
option
##ww
##ces
JS
##ef
Do
reason
Than
That
charact
##inal
cle
format
got
www
ext
pack
match
Any
off
Se
##indow
specific
##ets
##ON
valid
actually
multiple
##uery
##ful
looking
##lection
wrong
##ache
##ices
Ad
org
##oot
best
inv
take
tim
Or
##RL
edit
##SS
folder
probably
##ci
objects
Also
opt
reference
201
beh
##ier
cannot
give
must
repl
constr
##ix
el
##oup
site
keep
lot
looks
ID
##ilar
sm
prev
##ines
too
##reen
Can
##ange
added
top
##HP
things
ap
methods
browser
##omm
##OS
within
Windows
row
going
##be
##bug
date
HTML
who
either
via
##ether
lay
tool
##ical
block
attrib
users
last
fil
allow
enc
##Query
store
PHP
co
elements
##avas
similar
Go
import
##avascript
frame
##app
##ugin
side
##ords
inc
##tring
##til
changes
struct
idea
ob
br
##ope
lat
anything
##ply
##rl
##inter
directory
anyone
##ccess
##ivity
sa
##ER
eff
##ask
##sert
let
remove
tak
##sp
##ven
expect
avail
lang
sort
returns
Thanks
##ieve
##udio
##iting
compil
functions
ac
controller
appear
xml
arg
around
uses
copy
##ground
results
separ
exact
cr
mis
means
respon
##ession
window
##ired
pos
Cl
URL
Data
print
min
##ark
cert
rest
##iddle
though
##cept
isn
plugin
classes
tell
wid
approach
##its
sign
simply
##ge
##ized
##box
contains
fl
item
##view
##ility
configur
address
templ
action
available
##onent
map
##AT
Un
next
Android
##bers
Web
ref
Con
##hing
images
stand
##ream
seem
names
android
##ced
##igh
gre
mat
##ather
download
autom
##ender
##ties
##ubl
##face
box
once
sw
##fo
parameter
sty
auth
##site
documentation
##ype
100
place
12
creating
##ware
##oid
url
##ures
##ately
##icate
execut
screen
##aph
sl
else
fig
langu
few
save
assum
inte
ask
needs
play
everything
mean
full
please
vis
##ases
group
##rop
##St
initial
insert
##ploy
step
orig
jQuery
##ared
##omain
Cont
decl
##less
##In
convert
real
design
##aps
##vices
made
##atically
far
##ention
debug
construct
##ner
pointer
##wh
##ody
Sh
##ler
##ynam
bl
port
feat
rece
include
##mb
require
##ors
equ
##raw
adding
##aster
background
provid
exception
##avi
node
##enu
non
variables
##IT
level
given
##imit
Add
true
null
##word
NET
were
##aces
pop
small
##line
parent
Use
Your
connection
compile
however
##pload
complete
handle
defined
someone
properties
cal
assign
mach
##ech
##ling
fields
directly
kind
gets
publ
tab
rows
happen
javascript
left
mo
After
website
XML
##ization
De
won
rather
##OM
never
high
##omp
Note
##way
##ouble
items
nothing
filter
correctly
count
itself
extr
larg
##back
##ics
Google
asp
hard
position
##ially
express
##icro
##rame
standard
statement
implementation
Please
fact
200
module
static
clear
great
##ences
##urs
device
##IN
adv
dynam
behavi
##ST
##ict
google
stack
##bo
##over
Try
term
cell
Im
##Ex
errors
##ification
changed
package
cho
component
pers
child
##uction
pres
tables
response
##ection
easy
times
currently
template
installed
attribute
Server
lines
##TP
consider
norm
##sole
##List
bind
layout
##ager
header
##que
partic
stored
calls
success
host
##pty
our
##ples
##sc
##min
##ted
types
framework
Sy
render
upload
session
##osed
replace
shows
CSS
columns
wor
ach
##book
##eng
art
##utor
##gor
##ently
##action
View
didn
##pr
##soft
##ittle
makes
##Script
width
enter
subm
interface
structure
calling
##query
##Cl
bin
##LL
provide
exactly
##oint
##itten
guess
##ension
sch
##ipse
dist
##cul
python
little
stu
programm
##ging
occ
docs
options
separate
Python
whether
##ush
String
product
##gin
context
location
##ules
With
certain
env
##icrosoft
empty
pret
##iss
##ID
##irst
delete
particular
##where
machine
One
character
language
##ourse
##itch
sit
move
until
dat
##eo
scroll
##ommend
##attern
##eed
space
List
##LE
AS
##clipse
11
figure
##ward
login
##ency
##time
##ithub
##utes
sever
problems
##ities
##reak
avoid
##arget
original
##ross
##unch
recommend
##inu
writing
##iron
performance
JSON
bar
old
IE
parameters
whole
making
conc
##uments
##ily
compiler
throw
Just
pretty
pri
iter
##ciated
report
several
##utorial
##ified
automatically
See
bel
Act
menu
Edit
Not
least
User
##SQL
domain
##Controller
missing
cau
##ves
##ought
##ality
##let
generate
characters
fin
remo
##odes
solve
numbers
course
##abel
intern
css
needed
First
##ph
ident
quite
##file
gives
##amples
##ording
mention
##resent
En
task
All
written
height
calcul
rout
drop
issues
##uring
execute
##ength
prot
account
configuration
takes
##ilt
collection
mon
##aries
draw
##ources
base
##igger
github
Since
color
effect
##ined
Vis
##flow
##lob
bo
##reate
explain
actual
specify
previous
break
git
mode
cou
selected
##rid
perm
##jax
Using
define
resol
##name
vide
##vent
##ister
mark
word
pattern
##arning
tutorial
##ithm
style
##ique
console
turn
##ully
##ik
##Pro
20
comment
##ern
windows
environ
##ecess
exper
##oding
required
root
la
appre
##onder
limit
less
##alse
enough
##con
##ntax
entire
except
info
email
##avig
Does
Inst
addition
##rie
maybe
Open
##rome
pages
##ird
##und
deploy
##als
##ys
difference
No
At
common
##lay
represent
Object
generated
##uild
##ense
target
stop
##osit
bug
achieve
worked
related
##ken
happens
strings
sample
artic
NS
##ialog
record
built
##ower
large
desc
##old
##wise
From
##vious
settings
comb
##icit
details
job
comput
max
##iter
thought
Visual
password
##urity
##eople
wonder
properly
Studio
modify
##ception
Why
jquery
free
##tes
retrie
##sql
JavaScript
redirect
reading
DB
##ested
api
##ron
##andom
pur
##pping
syntax
ED
incre
System
says
Set
const
anim
setup
##empt
close
##dition
##AR
switch
##uce
existing
sav
constructor
##Data
apply
##ouse
##sers
##Name
section
public
##uth
length
json
IN
##ffer
##air
activity
##etch
loaded
Bas
##ott
events
dri
##acebook
short
prefer
##gorithm
manually
##Ser
enable
RE
false
##anch
environment
##cket
iOS
##rite
jar
fixed
##ector
sql
three
container
people
##Ch
##sh
##fe
##tain
normal
##ield
##alid
Check
jo
##her
OS
HTTP
attempt
EDIT
##pd
network
present
points
testing
##inux
yet
stream
##get
cases
allows
started
come
runs
simpl
register
##DK
wa
logic
fail
accept
db
algorithm
##rag
##pace
##anel
##board
##itle
push
video
cache
begin
jsf
ways
glob
feature
behavior
said
##atever
##code
changing
graph
random
comes
##ateg
blog
expected
expression
##icient
hash
rele
authent
argument
returned
general
##irt
necess
##apt
requests
updated
note
disc
records
tests
appears
##VC
branch
##ternal
##ten
press
##ole
basic
cause
messages
Get
mysql
##gular
##Id
##uby
##eries
big
sent
##ey
##edia
jsfiddle
sn
##OR
parse
shown
examples
##oad
functionality
describ
##OT
Tr
ms
##ository
##atform
16
##Re
##eet
di
spl
optim
std
whatever
trigger
developer
File
useful
##gn
operator
condition
Code
##imes
##echn
py
##ged
##DB
scen
##ances
##edi
##iled
Some
easily
tags
later
##ibility
met
##ires
unique
syn
15
##sed
links
ajax
##ump
extension
##aged
admin
Text
track
MySQL
easier
tot
bad
##CT
libraries
op
label
quick
priv
##ses
extend
pract
Man
past
stuff
permiss
##obile
believe
MS
questions
var
follows
fetch
checked
##IS
clean
goes
loading
alloc
Net
flo
submit
##upl
bott
navig
determ
##ipp
IP
##fully
##arn
##gate
##hone
scope
threads
matter
##aint
perf
By
##ites
development
00
##32
projects
versions
wanted
usually
passed
prevent
##pri
manage
##ols
##red
##irtual
mentioned
token
seen
##icated
complex
queries
##ternative
named
##chron
##idden
##gine
##ale
Res
grid
##semb
purp
double
##press
##ape
##alue
tree
basically
##ouch
handler
##though
##AM
tools
##point
views
##0000
ASP
slow
dev
Sc
techn
Create
May
including
attach
cent
32
asso
words
##etimes
##aced
##ision
regex
likely
##set
##body
keys
disable
Fire
Application
##ee
perfect
security
##Text
obvious
remote
global
##ueue
##ank
##fort
aspx
##urther
displayed
receiv
haven
lock
buttons
provided
mer
situ
SS
iP
cs
schem
Gr
25
dialog
##bar
resource
They
join
##ination
##port
contents
##ulate
status
important
##64
MVC
Be
experi
##ailed
##vers
outside
##nter
##ring
platform
appreciated
amount
article
book
comments
##quest
##acing
dynamic
title
##hip
care
apps
callback
##thers
special
Microsoft
person
bottom
##Exception
serial
wondering
explicit
##Im
operation
nice
dem
##light
day
appropri
sense
wrapp
integr
diff
##ames
##Man
fire
arch
##ock
##haps
resources
assume
##ATE
##Con
during
##utions
year
applications
Class
according
showing
##ync
body
64
game
regular
ver
repository
starting
implemented
external
sum
Upd
range
hold
exists
bound
entity
##ured
font
others
master
##cel
30
due
bytes
POS
phone
confus
Per
cook
Chrome
shared
##down
##jang
vector
attributes
##host
##To
ign
inher
appl
##Res
crash
##ides
##AX
##alk
compl
##apter
##ings
##rc
Eclipse
requires
extra
##vant
##ero
SE
Form
split
instr
containing
eval
completely
Run
necessary
##11
##ential
ideas
##99
seconds
sequ
dupl
##irection
executed
additional
##ew
self
regard
dest
ra
buffer
##sure
##resp
services
depending
##cle
hour
specified
answers
declar
integer
choose
across
auto
against
##rypt
programming
compar
##fig
##how
##ftware
launch
Sim
unless
validation
passing
##bed
##fortun
building
latest
runtime
##ann
##It
retrieve
pick
##ename
##ike
##Box
##xy
##ember
Id
tog
extract
clos
##jango
deal
home
##ected
##DF
##cription
arguments
native
together
temp
##ively
Comp
dll
##ategory
depends
##Object
sound
entr
binary
##ending
transaction
included
along
release
share
core
Test
proced
##df
##rod
##respond
exe
##Table
finish
commun
##medi
dynamically
Ap
correspond
14
fill
##amp
##imum
te
SDK
relative
Yes
##iles
appropriate
##efined
private
fails
##ramework
flag
Int
receive
##ctionary
Array
##fox
entry
##String
##dd
##PU
learn
dig
##acle
repe
Are
scenari
virtual
##ese
Instead
pull
abs
##fortunately
assemb
prom
overr
##rix
hope
commit
##az
mouse
VS
advance
hidden
features
Make
icon
faster
definition
arrays
mobile
Maybe
Sec
checking
##UI
SO
Pl
Qu
fast
##lex
##RE
##000
trick
processing
##rary
Date
notification
##most
POST
Have
Other
steps
longer
sk
Current
instances
##iber
constant
Spr
##umer
0x
member
creates
hit
operations
byte
Col
helps
##resh
Log
yes
foo
Basically
month
third
##izing
##uc
Sp
dont
##oo
removed
##ixel
Bec
##pped
##hot
often
pict
util
compare
mac
##ability
solutions
various
visible
Service
catch
txt
Another
##cat
Look
##Class
Because
sending
Which
situation
Update
##encies
starts
computer
del
references
13
days
embed
successfully
##imal
final
##Type
yourself
further
Let
##oud
##class
queue
50
Every
feel
efficient
couple
Com
software
nodes
cur
browsers
execution
mail
##ulator
warning
sometimes
##write
##entially
export
total
Par
authentication
layer
Once
Project
shell
apache
clicked
capt
##Context
NOT
40
##ries
Reg
##Time
quot
##oom
##ift
##ayout
relations
These
##AL
somewhere
##olute
##atic
##rote
Linux
wik
##ng
Error
zero
detect
##ibern
ed
##12
wait
transl
##bit
##ature
##App
##val
ok
anal
##NT
Ht
solved
unit
fore
##ibernate
ones
##ND
Rem
##pro
inf
returning
modules
DOM
##ane
rules
##order
otherwise
Ass
controls
instruction
##oded
##ons
supposed
##px
Javascript
username
Table
NU
evalu
vert
commands
wrote
engine
##spec
area
##ters
append
Spring
supported
active
snipp
remain
almost
hide
assuming
devices
internal
##86
scripts
thinking
mind
happening
pay
##istr
##ins
localhost
##AP
boot
##vlet
Build
OR
components
anyway
##igr
rule
US
##oke
##Form
absolute
##ret
##riend
##Col
Image
##ume
##top
maintain
pixel
Am
Each
##uck
route
##asks
##for
##to
override
aff
determine
##uture
tested
configure
behind
instant
##ival
equal
purpose
trouble
provides
practice
##ogn
Su
##any
##lock
##ories
alternative
src
##ism
refresh
safe
##unt
Could
ever
author
experience
##Model
##ony
##cho
direction
##ION
none
perfectly
##Item
suggestions
away
##xx
##ference
bro
interp
19
##MS
##oment
##undle
eclipse
##gress
##icates
microsoft
lead
thanks
cir
frag
Acc
bus
binding
his
##olog
shouldn
managed
inject
##ivid
asking
linked
symb
##ndex
##map
touch
cach
##orry
##iness
##80
although
While
##spect
storage
developing
profile
matrix
animation
front
moment
##oss
checkbox
Dis
relevant
##ordin
prim
lists
##inting
contin
Ent
Where
equival
Read
inherit
##Path
speed
Model
##Manager
Post
iPhone
statements
Mac
foc
Em
01
relationship
center
Rails
##ov
##Image
##ised
somehow
##icult
models
procedure
##itions
pip
schema
float
persist
thus
consist
##gers
super
couldn
force
VB
Select
##strap
looked
came
dependencies
##js
generic
giving
undefined
individ
Of
##af
panel
scenario
posts
saved
difficult
developers
##UT
Ar
focus
publish
facebook
##AS
##ensions
drag
Comm
Work
##ifier
restart
aren
impro
##itor
##gre
immedi
matches
##itive
category
usage
##ktop
mapping
explicitly
equivalent
aw
##itted
sets
Main
future
##zure
##ViewController
##CE
socket
impl
vs
##ompl
Type
encoding
IDE
production
##izer
parts
navigation
allowed
##agr
wouldn
annot
certif
constraint
ben
##rict
invalid
esc
searching
editor
includes
spring
corresponding
##eb
reach
##stract
friend
Name
proxy
Facebook
##VM
updates
packages
##Act
##File
rot
scre
myself
pointers
##inally
##day
forward
supports
distrib
recurs
concept
##aging
ensure
perhaps
feed
sequence
##dn
Firefox
##earch
modified
nested
car
##omplish
cast
##10
possib
guide
compiled
IIS
Apache
Doc
declare
##ru
rails
##ah
##vas
cap
picture
accomplish
alert
##essage
##epend
behaviour
visual
##amer
convers
Framework
merge
##ello
taking
##34
whenever
Activity
handling
ST
known
migr
understanding
coordin
calculate
fit
Custom
##ocol
namespace
assembly
upgr
permissions
##JS
2010
##lement
Pre
##utton
failed
inner
Even
UP
invol
##ased
WP
##elper
tre
##db
plan
##lish
dependency
GET
followed
logs
DE
manual
live
enabled
##Service
##Array
datas
headers
rad
declared
Win
hours
Des
desired
forms
##Sc
##chronous
img
resolve
causing
described
online
##ocation
Thank
transform
##around
ear
activ
Out
dim
UT
gl
clicking
servers
##Set
compat
OK
checks
tra
##AB
loads
meaning
snippet
Xcode
incor
io
debugging
stuck
Gener
blank
##umber
chart
##iced
##umb
##Error
primary
cross
tasks
wrap
##AN
becom
aware
Unfortunately
displays
##De
NULL
##verse
##uming
saying
Well
description
##fix
helpful
000
##of
associated
##oll
languages
CPU
plot
2012
align
styles
Fl
Currently
subclass
dictionary
Excel
##enced
bits
##By
learning
##add
fre
hop
##AD
##oub
fold
Ruby
scal
##At
##ciate
Should
posted
##uster
REST
sv
pair
Pr
##ian
##RI
##ives
angular
delegate
Action
Git
##son
deleted
team
mag
##specially
AJ
logged
cookie
##ms
remember
prec
pie
Access
##uration
workaround
instanti
##ren
##anc
talk
Som
coll
Thread
##mp
contact
installation
png
17
members
80
detail
Example
##ernel
##Event
finally
card
entries
24
##unction
Rep
AJAX
Event
PDF
suggested
##amera
##head
reset
GUI
asked
Apple
##izes
der
Lib
Start
player
Sub
terms
implementing
##pper
world
##olean
##ek
New
wish
selector
echo
##RO
recogn
clients
More
unable
sur
choice
##Value
therefore
##efault
CS
ran
##dk
selection
numer
Don
##erson
seg
Ob
##wards
reasons
soon
processes
##sl
dropdown
ready
msdn
##unk
##rollers
##AC
beginning
cred
inline
upon
##ium
respect
##uss
connected
ruby
noticed
##itect
driver
##echan
occurs
fair
requirement
wrapper
##lying
obviously
sem
adj
Inter
lower
coming
immediately
##DATE
##eak
matching
##Request
Sw
##ursor
##ided
##nection
Oracle
Page
batch
plugins
2008
Program
interest
##more
logging
##untu
sched
##irm
products
advice
screens
ie
pdf
##inst
##Sh
##aving
##annel
Http
##list
party
becomes
generally
Word
Hope
macro
individual
##arant
storing
Ab
repo
Right
##ongo
putting
##oses
hist
Content
demo
low
specifically
##itely
interested
CL
##Ad
stra
removing
cells
uns
##alle
increment
##stems
codes
22
##iver
##ifest
Aut
##ended
recently
##Activity
##ific
configured
seeing
customer
expand
embedd
##arily
strange
flex
manager
listen
fam
##itter
mist
##orer
Client
wiki
Ok
mechan
Entity
prompt
Auth
##ube
leave
2013
Sol
piece
##ived
documents
textbox
minutes
reload
guarant
luck
##CF
##Layout
##perty
hack
business
##anged
introd
explan
##use
##net
disk
cy
actions
manip
straight
Tw
##path
##LECT
quotes
ip
coding
##Code
##For
UPDATE
##buntu
Angular
dir
certificate
middle
##wr
applied
protocol
obser
##Stream
downloaded
tempor
##iod
hover
SELECT
continue
datab
##DN
##Button
Bel
##ounter
executing
fragment
cost
hor
duplicate
moving
stud
DLL
validate
jp
scale
become
##allel
Key
##empl
desktop
##Bar
##ME
especially
##ool
##ceed
ax
respons
liter
light
progress
cover
knows
causes
widget
displaying
sounds
cluster
updating
GC
kernel
worth
##page
permission
company
Azure
Develop
incorrect
advant
##ES
Click
##Field
forum
concern
##omple
clicks
finding
declaration
##Control
Setting
invoke
##estamp
Below
internet
prop
disp
parsing
scan
Prod
Rec
confused
Node
keyboard
white
##ssentially
twice
##eg
templates
normally
received
##log
##andler
phot
##ossible
possibly
smaller
neg
clause
##utable
Mod
Red
##eader
flow
##ED
rb
marg
connections
##Par
zip
instructions
Core
Config
near
popup
Control
exceptions
slight
assigned
goal
taken
Supp
ins
##overflow
##iest
media
##uced
Link
adds
PC
##Of
##Date
anywhere
lots
##ored
##erial
timeout
audio
cant
##On
##Key
ignore
confirm
mechanism
##faces
blocks
##endar
power
Load
topic
##older
repeat
##etime
obtain
folders
prior
grad
bundle
##ood
##ips
entities
ng
invok
Second
round
architect
anybody
iterate
fully
18
watch
##oop
affect
interact
terminal
improve
##eter
places
comparis
border
Stack
suggestion
systems
IS
Django
dump
##Map
##56
maximum
hook
Both
theme
plain
notice
eg
##olic
groups
raw
spaces
fairly
rect
Like
Most
Trans
copied
initialize
searched
##Be
period
chrome
##CP
termin
##ili
linux
opened
rendering
conversion
keyword
canvas
pred
exit
##me
##Load
##ynchronous
##20
##Tr
bunch
research
complicated
AD
##User
##icker
void
formul
collect
##Listener
prof
23
leg
Has
##md
Map
discuss
WCF
counter
mix
closed
mill
WPF
maven
Source
##En
reduce
four
##50
highlight
##play
requirements
suppose
capture
camera
provider
pot
paths
span
##With
dates
Back
Change
children
##actory
poly
lets
timer
Otherwise
tutorials
gem
larger
sites
benef
paste
partial
##ges
occurr
saving
cat
##angle
squ
##ersion
##anced
pool
##ref
EX
csv
years
produce
limited
UTF
21
tabs
Play
throws
hal
WH
##man
##ying
##zy
black
adjust
designed
##rd
attached
timestamp
DI
placed
embedded
SV
##ilter
bash
accessing
popul
##come
##State
##ooth
belong
higher
Bl
04
dot
ui
##Grid
considered
Its
##ledge
reads
##rupt
older
verify
weird
##Auth
explanation
According
prefix
encounter
##vert
Take
##no
Active
rewrite
meas
##24
appreciate
opens
cursor
##uge
django
##ategor
##ents
##ators
Users
iframe
opening
parallel
abstract
##Client
wasn
##LT
servlet
##ude
Cons
##esh
coordinates
Person
##oring
executable
##trib
circ
increase
states
maps
bootstrap
1000
sends
##ERE
Database
##pm
##entials
VM
strong
pure
##201
##pon
controllers
located
##PE
##alloc
##lier
Call
parser
##XX
identify
management
definitely
cpp
Problem
##Index
backend
##DE
stackoverflow
huge
##izont
##Th
##ilities
Expl
inputs
##33
databases
##fficient
##access
##URL
##icode
Finally
Item
Gu
alph
Therefore
helper
listener
grab
##FS
##ptions
Qt
expressions
imag
studio
Request
##amb
##Element
onto
sens
Controller
combination
Assuming
disabled
Only
##Source
meant
orient
##uces
Would
attempting
##GL
synchron
##ugg
usr
easiest
ago
##asing
occur
locally
finished
excel
asynchronous
##ensive
analy
rendered
Time
##ditions
articles
Spec
transfer
Ext
##lict
##arently
overflow
lost
conv
##rec
##ric
suit
SP
Grid
encrypt
inserted
debugger
webser
signal
rid
entered
respond
opp
##cut
##iliar
padd
##icial
boolean
regarding
frequ
assignment
conditions
week
win
est
##aven
##aml
filename
##Se
decide
channel
delay
##emplate
installing
CO
##NS
series
reb
math
went
##sequ
pa
resulting
creation
modal
Mon
##aining
COM
sheet
slightly
shad
tries
async
concat
caused
sync
##kit
suspect
Product
simpler
clar
temporary
ul
LIN
##arm
populate
AND
hardware
trace
scr
##install
##lib
##ierarch
monitor
##55
##tion
tells
##Comp
Express
##da
500
##mit
Direct
sorted
##acy
anymore
##omplete
Ag
bean
Search
##OC
##WS
keeps
relation
##roy
##change
Everything
generates
Method
screenshot
decided
hence
##iding
heap
foot
Inv
history
##words
##Gr
SSL
Library
knowledge
##glish
compress
##16
##jor
secure
distance
##ragment
symbol
rev
Value
##cker
converted
comparison
story
listed
programs
##CH
Find
##arb
##verage
figured
interpre
##nit
##erc
##ract
##rip
wants
##vc
Query
x86
directive
stores
##aw
offer
##opy
##cast
##ATH
escape
nor
##vider
editing
Loc
##encing
ali
transpar
formula
independ
Sorry
axis
##adata
quickly
divs
endpoint
forget
conflict
indexes
IM
adapter
Although
interesting
moved
lookup
##appear
2nd
obj
flash
entirely
leak
Inte
greatly
ends
offset
Mat
##Build
initialized
directories
Tom
htaccess
##Log
##FF
##iven
half
##trl
replaced
hint
##30
##Info
recommended
##ruct
subject
letter
price
generating
3rd
Alternative
typed
overload
handles
today
Intern
Install
margin
##ategories
Process
##mar
doub
##ING
manifest
resize
##iler
##azon
horizont
Line
architecture
##Panel
signific
Base
##ystem
loops
intended
advantage
tick
jpg
vol
##onym
##ulation
signature
decimal
protot
role
Simple
employ
##HT
foreign
##clude
major
iteration
Quest
addresses
Debug
Document
AP
##ology
padding
Le
sto
##ands
cut
##Point
pixels
playing
thrown
zoom
##OP
credentials
##istration
routes
saw
##60
referenced
##py
ability
AR
##Result
facing
implementations
##Inter
02
worry
##77
fiddle
blob
closing
PS
##UE
##4j
prints
emulator
reverse
negative
integers
##cont
Actually
##As
boxes
##do
wordpress
tom
##ural
origin
Ubuntu
upgrade
reports
previously
svn
##Handler
purposes
resolved
##mail
href
##uted
##Rec
mock
##Web
hierarch
handled
implements
##iable
essentially
roll
uploaded
deployment
waiting
##ining
##Frame
Sql
##lab
boost
indeed
drive
##ipedia
##14
drawing
Fo
compatible
UITable
minimum
typically
##GB
##eline
##Collection
pointed
stick
Perhaps
integration
nil
ON
##aves
ListView
arbit
familiar
##PL
implicit
guys
accessible
mistake
##22
TH
MSDN
caching
##cent
APIs
##OW
stay
Phone
Button
phys
Ke
##oku
##88
##Int
mostly
##Click
interfaces
##efully
Tab
Reference
talking
signed
##AG
earlier
allocated
plus
Bo
organ
Hello
digits
Files
##Out
associ
##ze
resolution
weight
aggre
##nown
significant
recent
programmatically
Default
##uffer
##PS
apple
er
##ustr
Alternatively
thumb
archive
##LS
visit
##igned
WS
##Window
contained
crashes
##clus
webpage
03
converting
derived
forg
formatting
cloud
representation
took
FI
gave
kill
altern
fall
Given
##ones
Ajax
CSV
##ponse
her
jsp
##olicy
Follow
official
disappear
##onymous
IO
gcc
XS
##ilver
##domain
alter
Maven
##ams
backup
##ising
accur
sorting
Consider
enum
##inq
da
dataset
60
constraints
Mongo
clearly
labels
##by
sources
Str
sal
##iment
##AML
possibility
JVM
28
##IG
whose
annotation
WHERE
Hi
##osition
##seud
CR
##apping
##istry
radio
greater
cookies
FR
receiving
scrolling
overhead
Exec
##70
##aring
continu
##illa
##Page
Task
##string
markup
##ains
jump
numeric
##IC
Exception
sorry
Settings
impossible
Mult
##rowser
##54
##ater
Session
2014
combine
##eets
Anyone
togg
LI
##leep
##ously
29
TCP
nav
##itial
Explorer
Jo
pointing
intent
Thus
Over
keeping
certainly
ord
##19
26
##ores
digit
##ysis
blue
##inding
extensions
printing
##viously
##arbage
underlying
os
successful
wide
LINQ
##my
##AME
##sel
##MB
##unc
opin
Internet
##ka
ended
concaten
selecting
##aim
optional
subs
##89
##ness
dimension
Part
overrid
accessed
machines
cmd
SQLite
completed
review
patch
##osing
ge
odd
ant
differences
Dele
##enk
##known
Something
restrict
extends
Question
##MP
recursive
##Task
Cre
meta
##Doc
Ide
communication
Store
Script
##astic
Foo
turns
registered
##oles
smart
##Changed
encode
Tomcat
destroy
##anges
##lers
##Create
Group
factory
05
Will
Function
##ifi
##enium
##ises
URLs
den
initialization
identical
ids
##phone
2015
compilation
encoded
infin
turned
jav
##Test
Next
specification
reflect
##DL
Down
copying
dependent
hoping
##asting
Version
filled
Saf
Remove
grow
##Action
Message
pseud
Write
holds
##oser
deprec
##itude
Boot
##oken
##rel
##ral
##ckets
identifier
react
##Factory
##ident
##pect
##osite
stops
developed
clone
mut
discover
JSF
##ypes
complexity
2011
Dep
##what
Without
worker
multip
Before
imagine
oracle
colors
Put
##Connection
unn
IB
##ading
##An
achie
arbitrary
executes
##FT
life
##Message
triggered
deployed
##AV
frameworks
##yy
requested
##orage
##iteria
gone
##ards
dealing
sizes
triv
prototype
##html
params
categories
Pass
Hibernate
hosting
ssh
Safari
broken
describe
##inct
happened
Admin
Py
Hash
URI
##serting
outer
##ming
overl
##ara
JQuery
equals
##essions
EF
##ipe
Te
##ts
##ancy
##Server
hosted
Graph
##perties
compiling
square
somebody
##ilverlight
modification
##ERT
pressed
guessing
##WT
regardless
Perl
absolutely
##onstr
pain
average
Save
##place
##outer
##18
##enkins
Mem
bigger
confusing
Manager
##like
metadata
samples
##atis
edge
builds
ArrayList
calendar
differently
##ryption
##Adapter
##CI
somewhat
tomcat
sdk
segment
floating
UITableView
##tract
Many
Rest
totally
HTML5
arr
##36
processed
##tribute
Pack
##Edit
vertical
Det
outputs
typing
##chem
measure
Rel
##Select
chain
writes
everyone
garbage
##ambda
##gant
footer
deleting
JO
skip
upper
Ret
quote
##74
defining
404
##gets
Did
##Method
Addition
Developer
Tools
##ictionary
npm
separated
##com
anonymous
##All
preview
pi
anch
represents
##Row
Based
expecting
##key
simplest
released
##ainer
destination
rate
printed
Services
##Comm
assets
abc
photo
region
breakpoint
##heet
##gres
readable
##ffice
##idth
##scrib
UN
##Format
##vable
##59
Enter
comma
##ars
serve
Column
##atus
Bit
Index
doesnt
rename
foreach
##de
cancel
##CL
bring
navigate
##tf
notifications
08
produces
SH
datat
##isk
linear
slide
Flash
lic
transparent
##icating
##ffic
##ps
Window
Share
poll
letters
Pay
strugg
##Cell
##selves
##river
##UR
functional
brack
arrow
PATH
usual
09
inheritance
eventually
guid
ini
##pth
wp
neither
Report
##ried
FROM
dr
extre
replacing
Collection
mar
literal
xxx
##Did
deprecated
opinion
He
##look
technique
##52
failure
##oun
circle
##Kit
blocking
INF
bugs
Us
goog
##ivers
##vm
Local
##process
highly
Und
##prise
tu
##ats
##click
##pected
##EN
dispatch
Order
submitted
DateTime
Auto
##76
##DBC
shape
Security
Obviously
filters
inserting
Found
##ission
hierarchy
yield
##AA
##72
Ph
##Not
trivial
##Property
elegant
##aravel
unfortunately
iPad
Dec
strateg
1st
##iqu
repeated
simulator
hibernate
UIView
None
posting
ios
ws
transition
explained
accordingly
##ferences
mov
Result
indicate
##ants
breaks
relatively
##AI
allowing
trust
##isp
hello
##iggers
##auth
##oice
##graph
benefit
bat
translate
compute
jobs
07
##iny
AWS
##arp
IF
Clo
hex
Scal
compared
bal
startup
Input
separately
sqlite
stage
chance
##ene
processor
90
locations
##Inst
##ots
allocate
latter
##imate
months
rob
##ections
ug
analysis
extreme
subst
06
distribution
integrate
texture
fav
Output
Valid
31
##pi
broad
structures
##rete
populated
##Over
among
newer
concurrent
country
percent
##Provider
patterns
cached
Anyway
providing
ill
subsequ
##ls
Step
##urrency
##ait
Either
Path
Cal
##84
operating
strict
##imin
invoked
##VER
##Application
##hi
sleep
##Size
whereas
##atisf
OpenGL
##ginx
failing
slider
##Config
##stream
algorithms
spread
magic
interval
descript
sys
land
modifying
prep
dra
##hes
td
##istic
specifying
sessions
Power
apparently
TR
generator
slower
experiment
##mf
##PA
##Rep
convention
Cloud
Ref
themselves
Objective
##link
independent
lack
True
symbols
datetime
lif
ES
necessarily
escap
NO
##Reader
##ento
Show
semant
docker
Async
##mary
colour
##aa
answered
##etic
conven
mapped
##mark
lim
##Get
urls
factor
throwing
Download
applies
iterator
protected
##Dele
attack
news
##acity
##ABLE
rectangle
dash
mine
##agram
##Base
identity
cycle
involved
Copy
wel
toggle
hy
##FC
##allery
Say
delimit
shortcut
##Play
gradle
checkout
curl
plug
branches
##pack
##tyle
##ees
##check
Cle
automatic
##avigation
consum
##Label
Command
handlers
IDs
ER
Suppose
##anging
##ova
##ght
frames
comparing
##aly
calculation
shift
reprod
##Trans
registry
aspect
Tool
##Ht
retain
communicate
dro
##tube
green
enumer
rely
mp
##sites
##used
singleton
##bl
AB
vi
listview
Last
##Back
detailed
Connect
emails
videos
sudo
CON
performed
knowing
defines
selects
criteria
##Run
##Unit
face
horizontal
chat
Oper
triggers
##DO
instantiate
happy
autoc
##oder
##uff
logical
imported
##Work
optimization
unnecess
##90
EC
Number
Mark
refact
Media
##AMP
Tim
Stand
score
unsigned
approaches
##Input
alias
Sometimes
traffic
Xml
assert
27
dead
Solution
English
marked
realize
##Filter
##PT
##Thread
##mm
Login
installer
Null
El
##tics
accounts
##orter
shut
##Mod
##ordova
##field
guarantee
speak
suc
##Ar
##NG
agent
Min
##Down
##jo
warnings
connecting
INS
##zilla
Met
##abling
##IME
ptr
##13
##server
distinct
alone
##oco
fac
fault
BY
pseudo
platforms
demonstr
bul
ren
##gle
##IX
##Press
partition
##rew
proceed
##entication
deep
sections
modern
cp
stopped
classpath
satisf
thous
told
Sm
##gi
State
##EX
registration
formats
initially
finds
levels
moves
Further
prin
JOIN
lazy
portion
Mo
injection
coded
Keep
accepted
pag
succeed
Me
suggests
collections
nat
##osen
##sheet
RAM
v2
Following
##eel
##olation
utility
suitable
whites
##agraph
44
##Content
##rive
stated
vend
wont
formatted
##ucing
conditional
3D
evaluate
##Node
Property
##odb
telling
##riction
depth
dd
copies
bitmap
##SE
migration
End
JSP
effectively
accepts
Having
twitter
compatibility
##bie
Depending
effort
##Hub
Console
##mfony
serialize
physical
encountered
##case
pairs
router
cart
tracking
bt
documented
rotate
##ued
remains
##Exec
decode
policy
VBA
reader
##66
perl
alt
manipulate
indicates
##Ent
##15
manner
clue
##a€
Properties
inspect
transactions
internally
CM
dict
belongs
Mobile
ignored
##inary
Html
commits
agree
##ipping
mong
webapp
animate
Again
calculated
ugly
potentially
Configuration
Tree
fork
subscrib
Forms
effects
operators
doubt
libs
##UD
filtering
Fragment
purch
AV
explains
##data
workflow
Design
anchor
vim
Norm
adapt
routing
34
definitions
assigning
fired
reuse
##fl
orientation
war
tend
downloading
UIImage
inform
##Builder
##istics
decre
edited
struggling
receives
SVN
##acs
##ablish
99
##Al
Unicode
##emo
passes
infinite
##From
graphics
Adding
##uler
smooth
reflection
##cha
##imately
INSERT
refers
##IF
Integer
tok
Multi
##esides
lambda
Scala
Json
Option
##Dialog
Layout
##ipped
VS201
extremely
Dev
##ety
optimize
Home
firefox
welcome
dimensions
Context
browse
##la
positive
SU
##ifies
missed
thank
Help
##izable
ViewModel
friends
Field
programmer
##amed
wikipedia
GL
##Number
##HTML
INT
Manage
Amazon
preser
##OME
Bootstrap
Intell
notify
discussion
community
him
NSS
preferred
Her
ded
##hn
Looking
linking
websites
Silverlight
ALL
saf
personal
##lies
helped
precise
invest
generation
Dynam
Account
##version
##Template
##onds
minute
vary
##area
##atives
##orate
Def
##Sp
advanced
OAuth
performing
simplified
treat
Count
##uts
understood
Drop
student
##isible
##Net
45
JDK
paragraph
##plot
reser
customers
restore
tokens
combin
primit
encryption
##elphi
##Pl
strip
TFS
Connection
atom
##expected
BT
Ctrl
alpha
vb
onCreate
spin
forgot
36
##Line
considering
##EY
ps
storyboard
Component
room
Delphi
##orted
##35
completion
##istrator
##upal
##igu
AM
interaction
scheme
v1
consistent
Looks
bey
overwr
payment
##UID
subt
minim
##Or
##39
##plement
Good
SOAP
GitHub
##IP
pipe
cron
precision
##pective
establish
unlike
Ident
owner
Sign
##upp
beyond
expose
parenthes
XP
Zend
workspace
mvc
substit
situations
S3
##200
##aff
##Component
##LD
corner
expensive
##orld
##79
CG
##ux
Network
interrupt
strategy
remaining
newly
grep
onclick
icons
compiles
##IR
##CII
##Group
love
chosen
restriction
containers
flags
##Delegate
kn
Notice
referencing
300
pin
##ectors
##isation
unnecessary
thumbn
packet
Standard
rotation
parsed
switching
fade
recognize
##40
##uet
XAML
clock
##zz
naming
scene
Prob
mask
##cp
ASCII
##CS
gems
Virtual
reasonable
Engine
unknown
Team
md
TO
quant
overlay
##ience
##ycle
elimin
designer
radi
PRO
imm
priority
##ologies
curious
##Scroll
clarify
hasn
deserial
MongoDB
##ayer
interpret
sufficient
Bar
##Mode
referring
Twitter
##apshot
city
activities
swap
##Add
spent
##ASE
##iate
behave
Mag
verb
##undred
##zone
whitespace
strongly
lose
tips
Art
Linq
flat
##eces
##UP
##Pre
##Document
##DP
fonts
contract
ideal
Seems
iphone
hopefully
youtube
Cent
tmp
marker
##Default
paper
##umerable
utf
Customer
chunk
prepar
typical
##angu
represented
encrypted
checkboxes
reply
hundred
applying
insp
unc
Parse
anno
Import
seper
heav
Publ
bund
che
FF
Jenkins
Plugin
Single
Sel
##oming
123
evaluated
duplicates
##CV
uploading
Two
DataGrid
closest
Ideally
attempts
wild
##open
sharing
subsequent
extended
TextView
potential
##asc
##DD
##ointer
##ino
concerned
cd
expects
##abilities
Address
2D
Location
Ind
USB
concrete
Wr
authenticate
guaranteed
books
##ational
Probably
##archar
brackets
nginx
##scape
advise
##afe
##Instance
poor
##beans
##wall
kept
beginner
##win
saves
redirected
subset
responses
Whenever
translation
annotations
##isec
exclude
##forward
careful
##ched
textarea
Basic
leads
Serial
##ifact
till
destruct
Items
##lobal
Interface
Same
incoming
webservice
Stream
SVG
tricky
##78
##upid
##paces
##obox
##idget
##uetooth
approx
customize
calculations
Display
Depend
intercept
htm
board
hot
recursion
##force
##iling
malloc
##uf
positions
responsive
##Color
##alog
ERR
proc
##AY
wrapped
##NU
respective
commented
scenarios
breaking
##eor
caller
##obe
AF
Inside
elsewhere
##dbc
achieved
relationships
##owers
particularly
Vari
occurred
wall
##oubles
Send
##Player
matched
illustr
##imation
forums
rewr
##arin
Usually
Disp
distributed
puts
thats
Swift
Replace
Directory
looping
quality
##izard
##ua
##aunch
secret
##Menu
overwrite
##PC
wrapping
PO
42
RT
##Http
ahead
2009
heavy
##cial
Ac
que
hang
preced
CH
fly
lik
popular
##ositories
##ags
Abstract
scop
drawn
##spot
DT
2005
##usic
beta
placeh
searches
scratch
Simply
Port
loss
micro
Math
##views
notes
pom
Runtime
leaving
Br
pieces
chars
basis
##isions
leading
thoughts
Jquery
downloads
##co
newbie
##Command
uninstall
bool
straightforward
Delete
roles
w3
MY
##XML
##roov
FB
CD
minimal
summary
overriding
##enders
##Upd
reporting
##anner
##Process
vectors
bindings
stupid
surpr
gallery
locale
redirects
##Wr
photos
discovered
##ummy
##web
##Record
##lass
Our
##Attribute
rebuild
##Start
originally
replacement
##Session
GCC
Similar
CT
##card
performs
##44
##EM
##Det
##roovy
Game
AC
notation
employee
Resource
bounds
widgets
exam
Additionally
attr
cf
training
unexpected
duration
tweak
hum
##izations
##75
hits
allocation
slash
ordered
assumes
pushed
published
toolbar
combinations
##andbox
Hence
vendor
qual
ine
##Count
indexed
##iring
mm
CA
impact
simplify
##kell
ff
cleaner
Draw
dom
SC
privile
xaml
stable
respectively
##mer
cra
##ital
##ners
ordering
deliver
responsible
technology
##ta
late
##connect
##38
retrieved
##icle
removes
400
##here
func
layers
edges
Wik
randomly
##store
everywhere
Those
ORM
255
FOR
constants
crit
##amarin
127
BTW
Intelli
##26
Big
consists
Unless
Though
nicely
introduced
##aut
##Url
claim
##Sub
interpreter
zone
pc
rough
Bet
authorization
offers
1234
Scroll
##fs
unicode
spot
Editor
simult
builder
##ained
Remember
##omet
##cing
CLI
Sample
MAT
##ailing
seemed
declaring
Maps
##irectory
setter
##API
##ounds
ter
##OO
Menu
flexible
reject
JPA
##text
schedule
offline
fires
tap
polyg
##96
##Post
inserts
##ached
scripting
##iques
walk
##Link
personally
##Impl
defaults
serialization
##ne
reliable
vertex
##ament
sun
##celer
volume
##akes
million
importing
##alone
snapshot
encaps
##ifiers
investig
meet
2017
printf
##Store
DIV
Full
##orph
contrib
troubles
mongo
loader
Site
##bone
##hell
pictures
##apper
Sl
Author
35
Char
##ushing
##ums
##ivot
overall
plist
Under
Max
material
##frame
princi
##Bean
multipl
HOME
everytime
linker
##uled
##erce
indent
simultane
GPU
##arr
realized
##ideo
Office
artifact
flush
accurate
limits
##Com
receiver
coordinate
##stand
keywords
##So
pipeline
##emon
xs
Format
##core
DNS
theory
inherited
ir
##anguage
protect
LE
##swer
FILE
##gap
Return
##ster
##picker
visibility
SM
risk
##US
postgres
legacy
##ameter
IE8
SharePoint
deleg
millisec
##ung
numpy
Authentication
feedback
##Lib
hosts
Child
##iff
##rast
##Rece
##Call
explorer
WE
Running
rare
Response
##ns
wise
awk
2016
##esture
opposed
migrate
indexing
heard
alternatives
##Util
##icator
React
blogs
XSLT
##print
pressing
IEn
miss
NOTE
ca
TABLE
sel
##gu
##VE
##hand
units
toolt
planning
apart
##17
grant
Row
##Token
Long
##go
leaves
##LY
central
renders
af
joins
filesystem
aggreg
##ma
sensitive
Dat
##Picker
##gs
Employ
repositories
##pass
autocomplete
##usion
Db
practices
Module
##ocoa
sockets
consumer
Adv
##mediate
Trying
optimized
Builder
orders
combined
MD
procedures
##ina
Management
hyper
xcode
Swing
okay
tuple
args
stays
DO
infl
Parent
kinds
JAR
##aded
##Timeout
aggregate
ur
stylesheet
##greSQL
NSString
packets
querying
streaming
constructors
##pal
Still
##00000000
NH
##inger
annoying
##under
##sembly
Typ
##pite
styling
apk
Requ
showed
reproduce
##mod
Flex
exceed
##otion
Package
retrieving
##project
detection
transformation
sender
counts
phase
fancy
ten
acceptable
decision
##esome
HTTPS
assemblies
ERROR
##zip
##enty
enters
insight
WordPress
convenient
Att
decor
persistence
dummy
Common
compilers
##illy
##arding
Options
aligned
Best
##Found
gen
streams
ports
##And
standalone
redund
HE
TextBox
scala
##apped
layouts
jars
medi
##Up
##2d
2007
shall
involves
2000
uncheck
license
Unit
timezone
##25
techniques
MV
thousands
CF
##Loader
Servlet
Invalid
entering
GWT
heroku
VC
consume
##ById
##Des
Dr
##rypto
perspective
tiny
serious
##ana
diag
environments
Mono
MM
shadow
FTP
reached
Objects
drawable
Unix
bucket
MB
##emp
Global
fragments
hom
star
CMS
paint
Browser
firewall
bill
Memory
##arts
33
##Change
friendly
beans
Hand
##Access
corrupt
##YY
##ifically
Demo
trunc
##viron
slides
harder
ye
Intent
48
age
ens
##orn
Selenium
CI
##oney
viewDid
Release
##unks
listing
err
##bb
Prot
MO
representing
##clusion
ubuntu
##aled
##othing
fetching
broadcast
suppl
##sec
Host
Enc
##aking
##Sql
divide
circum
spreadsheet
closes
##eks
frequently
tun
Hop
##ios
Job
##Project
animations
iterating
Specifically
Possible
Wordpress
interse
Contact
##Response
##otal
locking
PostgreSQL
fund
mongodb
decrypt
JDBC
Point
sed
##atcher
useless
##epad
##argets
Allow
solving
fixes
dirty
SER
##env
##Le
Implement
Enable
unders
describes
toString
clip
##onic
Template
mainly
msg
Book
##ulated
Orig
holding
##forms
Background
##aming
##asp
SSH
##len
indices
##atio
sees
increasing
instantiated
##plex
favor
applic
##owershell
routine
configurations
passwords
##leg
towards
frequency
gradient
domains
Unity
pe
PK
##xml
Quick
preference
DAT
unsure
XCode
##park
##Valid
Laravel
8080
False
determined
Schem
RO
##unit
Heroku
Device
x64
##ares
callbacks
registers
##lines
areas
USER
Filter
Cannot
128
##Resource
primitive
SW
ste
highest
mass
##llent
##Rect
pause
Dialog
presented
topics
##a€™
##andra
interactive
Transaction
##29
Had
social
a€
IEnumerable
association
##KE
Native
experienced
Shared
early
Initial
matters
listening
##23
fresh
mv
##vironment
rank
AngularJS
Cell
immutable
RS
##Child
assist
##ague
spr
concepts
supply
webserver
Insert
##lets
prepared
raise
subd
Programming
##framework
##ocs
afterwards
Generally
produced
revision
men
Category
##iant
##Val
##28
##agrid
minor
##boBox
sq
casting
##itional
predict
Normally
sprite
prepare
cod
Block
Lets
Element
##awn
getter
stock
##Items
sudd
asks
Master
##user
sandbox
SET
JB
Exp
critical
persistent
##Shell
newline
##MQ
##reh
band
combobox
teach
##oute
##dl
azure
AT
Co
##esting
nature
##ulating
classic
gram
scrollbar
XPath
sizeof
blocked
shot
om
coun
##assandra
percentage
interpreted
##script
GridView
Answer
sentence
isol
cool
varchar
Working
angle
locate
chunks
ct
##lements
256
Apparently
sudden
excellent
extending
##Loc
Cache
##ptop
sorts
reported
threading
Nothing
Support
GA
buy
javax
##inder
ending
Analy
##PM
##uly
##ingu
laptop
John
dashboard
Execute
##ctr
##timately
##48
practical
BUT
Think
##eat
Target
##ulture
PDO
exc
LD
Domain
OpenCV
weeks
logo
KEY
##tk
simulate
subdomain
Turn
Identity
integrated
administrator
Language
optimal
weak
OSX
##Host
diagram
oriented
56
compression
##JB
Bus
##straction
##Column
confusion
##Search
hadoop
##Options
assumption
##uit
datasource
drivers
preferences
scaling
##ateway
presentation
five
alphab
uploads
##Writer
objective
StackOver
LO
##HO
##otes
##boss
hints
v3
##Buffer
computers
picker
Fix
OP
subtract
##reg
hon
worse
benefits
contacts
##thread
counting
ISO
##Helper
##na
noted
70
##inc
converts
wanting
supplied
games
MAX
printer
validator
##MA
PL
chall
##ctrine
declarations
treated
AsyncTask
choices
xy
##DER
tableView
yours
technical
seek
eng
A1
automated
Creating
##anger
hitting
night
##ASS
unt
univers
movie
Guide
##search
NAME
NHibernate
authenticated
##Forms
Inc
macros
serialized
Selected
incorrectly
Haskell
##ffers
##rait
cc
##Fragment
xsl
market
limitation
Stud
##ii
##UG
memc
substring
##EE
##Location
amazon
trunk
##AtIndex
versa
Mar
powerful
locked
##slash
music
destroyed
Mail
affected
##37
Ant
Views
Car
##Dis
Up
bother
exerc
susp
Magento
handy
##CTION
##27
##icity
shorter
##TH
rs
##Style
Pri
english
Need
##umably
Okay
synchronous
gain
regards
##Admin
##ront
automate
grouping
deploying
Dupl
compreh
selectors
Deploy
whats
##RS
es
WM
accident
fits
Double
expert
rake
positioning
placeholder
bench
##Storage
introduce
Info
launched
stdout
learned
erb
Clear
DS
Dynamic
tooltip
Comput
landscape
ment
pulling
former
##illed
selenium
NE
Refer
merged
##aught
gridview
submitting
consuming
WEB
vice
gn
##ales
song
UIText
##Tab
natural
##br
##Dictionary
base64
##etty
pagination
plenty
intermediate
##One
##ools
human
##UNT
Desktop
Essentially
Bitmap
hear
targets
tit
milliseconds
enclo
Player
Xamarin
UIViewController
seed
portable
Boolean
mi
##Block
##inguish
AN
Linear
Av
implicitly
releases
closure
##ibly
shap
##ran
##Version
computation
##Serial
StackOverflow
markers
sales
school
nearly
pushing
Move
##Mem
office
Employee
EC2
Cor
Perform
computed
prevents
individually
DEL
##space
Print
##ithmetic
radius
vertically
tail
ball
##Cache
bri
Top
activate
Personally
192
##Servlet
##gan
##IB
##iguous
capabilities
cordova
##anna
ess
##ny
Matlab
viewport
effective
##icing
ep
##info
Term
terminate
##Oper
recreate
About
##url
manipulation
certificates
##Pr
##ecl
decomp
misunder
subscription
##IE
##IM
hiding
ImageView
JAV
combo
faced
dimensional
##admin
Linked
##right
simultaneously
switched
fundament
Convert
oauth
webview
thumbnail
##Pool
##screen
trad
craw
Free
JAX
##ensor
df
fetched
assumed
seperate
wire
##ashion
Hopefully
##cv
dism
##Pointer
abstraction
##ench
rich
##AIN
chose
##elines
##kill
imports
Firebase
##DS
constructed
##Tree
##bound
dealloc
Documentation
verified
High
##build
##unes
##Draw
preprocess
PNG
placing
mutex
synchronized
attempted
trailing
##AO
inherits
opposite
Status
dedicated
pen
EJB
Obser
##plit
##Container
##opt
sil
##controller
mount
##Output
svg
##cs
Regex
aud
yyy
intend
ratio
xls
datagrid
disconnect
##value
##mx
ls
fashion
##ATION
ticket
##Check
semantics
##Async
##ucer
ranges
Symfony
##bin
GRO
spark
reus
##gest
involve
unix
UTC
cand
##angles
shader
YES
wheel
##Fiddle
awesome
DATE
Apps
jq
##bu
GB
Boost
##21
Binding
raised
##Queue
portal
##IO
EditText
standards
##EXT
54
namespaces
mal
##atory
wanna
sidebar
55
Ne
##morph
Getting
exported
amb
Prof
##nost
redundant
##Socket
positioned
modifications
ssl
pul
Render
101
Pattern
extern
##Inv
reaches
##fish
conflicts
variant
59
39
##Ob
advantages
Label
Spark
##berry
##bm
finishes
surr
grammar
Upload
##LAB
##ETE
Integr
IT
connects
ec
needing
GNU
unw
exposed
Environment
Jan
Autom
##inish
##pling
Email
intention
tableview
Cocoa
Platform
##31
aim
Arch
ey
##arrow
Win32
spawn
curve
highlighted
##68
efficiently
mysite
datatype
##SSION
mixed
Register
calculating
appended
locks
##Update
Furthermore
##2D
##cf
basics
overview
stret
distinguish
forever
CC
rights
trim
destructor
sake
##9999
stri
Header
exclud
reinstall
Rather
animated
yml
##Function
##struct
marks
reserved
hundreds
##Ref
Color
##itable
exchange
ld
General
##rible
##ij
ts
purchase
uk
Iss
managing
gather
throughout
gotten
##achine
skill
##uid
separator
pane
Duplicate
##lleg
##ipher
eliminate
gif
Conc
##rase
Cr
Dictionary
##unity
despite
vertices
solves
Panel
asc
fixing
gmail
frontend
recip
##My
JAVA
mysqli
##YPE
##artment
##ompat
Socket
scheduled
atomic
bare
##type
workbook
Doing
detected
49
lies
centered
invoking
##enter
Rad
##ructure
mutable
uri
decent
Intel
prime
acqu
lab
family
besides
BE
obtained
ViewController
Buffer
textfield
invisible
silly
GROUP
synchronization
Tag
recursively
WebView
surface
00000
GPS
continues
##forge
Wikipedia
Box
forth
pat
limitations
googling
describing
provision
##eters
specifies
relational
gist
elastic
pub
payload
##He
covers
pasted
##ici
upgraded
cards
UDP
SHA
Timer
attachment
##ART
asset
snippets
arm
appending
spend
##rics
##ecycle
168
v4
pg
html5
robust
Storage
##Interface
possibilities
insertion
cv
##Module
subscribe
played
threaded
viewing
wx
##eper
intell
Adobe
dropped
buffers
surround
arithmetic
##End
Outlook
chapter
technically
MATLAB
Development
sequences
##llegal
onClick
Po
##uget
finger
wizard
constantly
opacity
##iom
union
150
##icks
Nu
multiply
WAR
##tenance
Expression
Navigation
##reet
Grad
Iter
Drupal
tip
worst
ping
filtered
Eas
cores
##AGE
##model
logout
deb
recomp
viol
##gwin
##Pane
occas
##Status
ss
##Render
XXX
38
Added
Bro
daemon
backslash
subquery
Docker
converter
##Touch
daily
##abled
##mpeg
Github
PowerShell
##ky
asynchronously
##ering
EE
##related
money
Tried
served
##ferred
alternate
CLR
##erely
viewer
solid
Remote
choosing
Audio
##onar
Begin
##Engine
unlikely
flaw
feels
Val
listeners
Sort
##WebView
postback
designing
players
bot
evaluation
blogspot
applicable
Strings
##Bundle
narrow
overlap
secondary
Ver
scheduler
fastest
##ometry
##ited
slice
##Un
xyz
##TL
crazy
collision
Cert
recording
##levant
jboss
##Str
##rames
NSM
mid
IntelliJ
46
ideally
##du
charts
2F
terminated
##width
messy
division
RGB
tile
corresponds
programmers
statistics
catalog
##Address
##match
alignment
ORDER
##ENT
aside
privileges
Notification
reve
##jure
Canvas
splitting
principle
Video
##QUE
Real
na
theor
EXE
structured
Fiddle
Dist
polygon
reboot
supporting
##100
##wt
##58
clon
##nable
profiles
completes
Init
##lined
VAL
##atal
forced
closer
##bled
log4j
compan
concerns
acts
##Notification
##Navigation
editable
behaves
capable
##ha
composer
Cake
##adoc
composite
Never
Firebug
replicate
horizontally
Compar
Short
Prov
upgrading
predicate
##etically
##standing
thresh
candid
preserve
quantity
##Reg
Applications
shutdown
FA
Assembly
submission
##cles
timing
invent
polymorph
typo
irre
##Entity
interv
initializer
##System
##UN
Profile
Kind
##94
##ailable
cm
Che
pivot
tbl
bold
shr
stats
transport
brand
guidance
SMS
covered
##ibling
tricks
MAC
VAR
repeating
Calendar
appropriately
mozilla
AL
HashMap
googled
Lat
##Case
##DI
##Read
##Pal
redis
logger
COR
##tings
safely
parentheses
##Interval
emacs
promise
##ocus
phonegap
roughly
##usc
dismiss
analyz
fake
##epage
##aper
Resources
##LO
##vation
##full
inefficient
applet
MVVM
Documents
circumst
Redis
Changing
proof
suddenly
httpd
delimiter
construction
acceler
threshold
JBoss
operate
geo
disappears
Solr
ftp
Sure
Regarding
datepicker
##ecode
stub
signing
floats
collected
##raid
2003
xib
##Runtime
bypass
##Widget
rever
GM
##JSON
##rices
feeling
Mouse
exercise
IBM
providers
listbox
resizing
1024
##engine
btn
equality
injected
##ookie
Struct
Close
alb
yyyy
setTimeout
mathem
collap
##EST
HEAD
Advanced
##umbers
she
WSDL
jdbc
concurrency
picked
initializing
Rewrite
students
leaks
aws
refactor
concatenate
appearing
##ventions
translated
referred
honest
recognized
Validation
##istent
CRE
Phot
Enterprise
sized
datast
enh
DELETE
restrictions
Url
laravel
qt
hostname
##group
maintenance
SERVER
graphs
enforce
prem
AFAI
Title
##Background
trees
kinda
linq
##oting
escaped
##ercial
lex
JM
Live
hyp
perman
coverage
75
subclasses
Asp
ignoring
viewDidLoad
Firstly
##inate
Within
Bean
figuring
##chain
preferably
##NI
Details
speaking
engines
usable
portrait
Perm
bulk
mk
rating
##ecimal
##config
jdk
##Domain
filling
arri
webkit
phones
##ALL
##ker
##ScrollView
deletes
flexibility
blah
##terday
##table
##RT
Static
##ycl
hyperlink
##gl
suff
credit
Except
shop
Regards
pops
menus
cli
signals
##gen
extracted
omit
afraid
IE9
ctrl
##weight
underscore
adb
##clusive
san
##Beans
iT
##Operation
##3D
apt
guides
##uzz
##ucene
UserControl
programatically
sd
suite
pod
##igniter
foreground
mp3
Preferences
##rapper
redirecting
grouped
##icol
attention
swift
Sum
replaces
verbose
Level
##Stack
DataTable
##iform
tiles
immediate
PayPal
Na
R2
latency
Imag
disabling
##Db
Plus
overridden
DR
exits
turning
soft
Activ
NSMutable
MainActivity
##Express
matrices
NST
backwards
##ogether
waste
##Parser
##ahoo
##Graph
##AtIndexPath
equation
##anned
JRE
spinner
ads
balanc
##date
descriptor
Netbeans
NuGet
deg
uncle
Software
##MENT
##orth
revert
gdb
Frame
polling
ns
Moreover
binaries
Container
willing
recover
EN
World
Total
##atile
triangle
##apsed
##fusc
swipe
restarted
##ORT
propag
bars
##ULT
iterations
Works
##anted
##abbit
##ista
MyClass
37
literally
Elastic
invocation
##Editor
##eme
##iders
continuous
driven
sb
brief
monitoring
##Open
getElement
pulled
significantly
committed
factors
ARM
##cr
Queue
##osh
Launch
##FX
legal
firing
##ameters
latitude
mentions
grails
pk
##urally
directives
increases
dark
##Ext
##ingly
circular
mydomain
##ours
UIImageView
##ln
redirection
##Tag
cake
dere
capturing
##PHP
expanded
Wi
nodejs
thinks
merging
##Width
##icious
##verter
SESSION
largest
organization
carry
##pc
##ithread
compressed
##api
alive
sibling
analytics
groovy
Setup
SMTP
SSIS
##iciency
Equ
Screen
frustr
##bon
##uent
Push
##ano
middleware
##IL
##ocols
escaping
##57
CP
Folder
##ley
52
trial
salt
requiring
##Book
##iddler
Sur
Font
##enge
configuring
EL
3000
ToString
zer
88
confirmation
ListBox
Export
touches
Gradle
Invoke
Give
##rier
Style
vm
##hoot
danger
0000
partially
springframework
##New
globally
##rient
xx
mand
##NAME
indicating
readability
requesting
##Reference
clickable
APP
sides
biggest
implies
##uting
During
train
maintaining
##ivery
loose
captured
##3d
commercial
##iation
##he
##advant
tax
periodically
##Hash
##oted
problematic
##ui
SIG
solr
##izers
webso
TIME
overkill
conventions
difficulty
tel
edition
LinearLayout
PR
pan
OOP
slot
ActiveRecord
##ARY
homepage
Hadoop
discard
Calling
Sk
Foundation
Pop
evaluates
cleared
Handler
datatable
##PEG
Rich
##rt
minimize
likes
commonly
Bluetooth
distribute
queues
accuracy
shrink
AFAIK
lifetime
Ul
Der
brings
Cheers
NSURL
Oh
##ousel
##aken
messing
##ression
##iated
##Sec
myapp
##duino
boundary
expir
colle
themes
duplicated
tar
##ighb
##ITY
Similarly
RFC
Public
Comple
Business
Observable
DD
Very
traditional
Rob
##imer
grey
##Browser
Student
opencv
pid
##fc
64bit
smallest
##fill
presumably
didnt
RESTful
85
autol
##Hand
cpu
guy
relies
##porate
shapes
explaining
wherever
##names
stretch
strictly
##eech
caught
ABC
Analytics
Non
technologies
stands
JPanel
Company
##while
ffmpeg
##bing
##ades
##Custom
scrap
CREATE
##off
Postgres
incons
LOC
road
efficiency
##orders
SD
##tributes
swf
workers
longitude
stopping
##FA
unclear
##installed
hardc
##dir
Sched
surprised
subfo
Tod
PM
##98
statically
GUID
COUNT
##MIT
restarting
Sn
Pers
Relative
sourceforge
occasion
##ils
READ
##04
##dp
enterprise
##autif
Inject
paypal
recre
##files
analyze
##Selector
s3
ONLY
predefined
staging
##IA
Ed
safety
Tutorial
benchmark
##err
refactoring
lowest
suffix
truly
##Are
##etical
IE7
ME
##andas
Multiple
replication
Grails
navbar
Mode
magento
preg
##CESS
##ACK
##ael
dt
##maps
ADO
##BUG
xpath
utf8
begins
grate
THE
fb
Fort
capital
Dependency
mvn
subview
##olution
casc
charset
hooks
endpoints
##ym
connector
INFO
Place
tcp
computing
imgur
aka
##gable
##ester
##ctionaries
Root
denied
##changed
##Fl
##Pager
##claim
##ffect
Remo
directions
JFrame
regexp
Secondly
Mess
##eless
margins
sell
Cho
mistakes
##acking
accidentally
Bundle
##ryst
waits
TRUE
##ovie
Api
VS2010
Graphics
PE
lifecycle
Binary
dragging
##start
NSArray
##trace
##Studio
Password
Vector
gap
existence
##amsung
##CHAR
##essional
Black
merely
##ists
Repository
idiom
identified
migrations
Joom
associate
restricted
##test
MySql
Off
targeting
circumstances
dataframe
dl
jsFiddle
reli
matlab
Byte
##efin
experiencing
gray
intervals
ints
Issue
controlled
SY
brid
Size
gc
JSFiddle
Cordova
iTunes
IOS
Range
observable
##Height
##SC
##MO
##enger
crashing
reduced
tablet
occup
preventing
Loop
##ilst
rm
vote
Cy
viewed
Typically
##PG
##Part
ultimately
hashes
activated
launching
lin
Ro
##Su
quad
Temp
Joomla
##Main
600
variety
Generic
serving
enables
##item
##Ident
Provider
gesture
demand
prove
##ECT
proposed
independently
Emb
mismatch
cycles
commons
indicator
800
##Directory
##53
race
NullPointer
##rystal
Redirect
tech
Unable
Glass
##wd
##plus
##vis
literals
quoted
##atical
Di
pending
##tle
enabling
##Report
Publish
##overy
##ocode
renamed
##sey
conse
##iving
Mer
##grid
##ockout
##alks
mirror
bandwidth
Adapter
Random
symfony
##Tube
accord
avoiding
##icles
logcat
##ros
##73
sam
carefully
##reshing
Someone
meaningful
quit
Opera
##bs
highlighting
##UST
##arse
Warning
Sheet
pthread
multithread
Techn
powershell
##ensity
53
profiler
##A´
gateway
grunt
len
VER
##agrant
movement
##Binding
##Objects
pic
mappings
##vey
presses
##ws
120
soap
Besides
##duct
owners
Backbone
LDAP
##logic
minus
Projects
fraction
improved
anc
accesses
firebug
##gument
Cat
multiplication
##Per
altogether
##ris
paging
companies
freed
##ica
neighb
rewriting
Include
FL
discussed
sho
Record
precisely
repeatedly
##abric
Images
##69
Nex
##grees
incompat
namely
##Configuration
Final
Collections
PUT
Better
Recently
FK
##DT
warn
yellow
##Driver
Mean
fs
variations
43
optimizations
Always
Wait
Machine
irrelevant
Imagine
worried
ODBC
scrolls
blur
clearer
channels
busy
probability
##Range
getElementById
##rough
disadvant
DLLs
##havi
##rastructure
##alth
recon
##ViewModel
##GI
utilize
customized
rounded
setters
house
maintained
paid
58
##Tool
textview
Del
##tra
##Ign
helpers
balance
##block
degree
##Enabled
confirmed
comfort
Match
65
Performance
similarly
worksheet
##active
angularjs
collapse
Description
10000
##gb
messed
##initial
wildcard
Ember
sheets
troubleshoot
exponent
resort
presence
generics
##eloc
IMHO
##Worker
##Area
Case
ANS
##ampp
Decl
crypto
Extension
amounts
##45
##grade
borders
adjac
##endo
yields
##adly
van
NetBeans
segments
ComboBox
##arter
challenge
commas
Card
Hy
##Elements
##Execute
OO
Shift
breakpoints
##TS
underne
purely
##Pack
uniform
##ctor
specs
Got
##only
##ifying
Compiler
emit
Gre
uid
Overflow
tied
##ior
helping
unused
messaging
yesterday
##RowAtIndexPath
##leneck
Such
##cal
##auses
installs
keyp
underneath
51
slave
##Details
intersection
flip
Assume
rarely
println
SL
DAO
unus
##irth
alarm
UIWebView
sensor
appeared
Updated
Dif
Nexus
obfusc
199
prox
membership
##Device
Token
vul
##acter
letting
volatile
##atter
onload
##ebin
##Will
YouTube
##eek
numerous
consecut
##control
jenkins
##Header
edu
Testing
consequ
d3
segue
##02
Lua
##CR
##Char
##ias
publishing
verification
feas
employees
bottleneck
CSS3
Events
Attribute
UINavigation
Yet
Head
recommendation
instruct
plays
corrupted
hides
traverse
cube
numerical
RSS
gui
concatenation
occurring
Gem
##rev
regions
capability
doz
rollback
textboxes
##Services
##vate
98
held
##OL
001
##IZ
protection
capacity
##Settings
CMake
circles
POSIX
##DFS
iv
Touch
##ipal
simplicity
spam
Proxy
deadlock
cgi
##Library
ease
deserialize
##Gener
ADD
overwritten
##lessly
##urial
KB
refreshing
currency
##gression
Failed
forces
spacing
decrease
switches
Unknown
ignores
fa
structs
TLS
##afka
##Memory
forcing
suppress
rvm
##ocos
##ORE
UIButton
##BS
zeros
##edd
automation
indicated
processors
air
##mt
superclass
increased
px
costs
Split
protocols
unrelated
semi
semicol
##Screen
CE
improvement
3d
expired
SK
Prom
Sounds
unlock
xsd
parents
##Repository
drupal
##Complete
Define
Emacs
41
DEBUG
libc
##umped
temporarily
resized
LIKE
Rece
fol
firebase
##Utils
47
JUnit
UILabel
formed
Schema
cshtml
braces
resume
Vista
Syntax
GT
NullPointerException
##Local
##gy
idle
wsdl
Role
Clean
observe
writer
##loader
Stop
NaN
Flo
Whether
universal
##ourn
##ssl
caches
##ancel
##heets
##First
pastebin
##chools
hashing
##arper
##uling
ARC
degrees
metrics
RC
fills
Reading
comparisons
tuples
##Dir
clever
overcome
##Callback
##Display
Meteor
Due
registering
##Selected
serves
oct
fn
vague
heading
##alax
IMO
999
focused
##managed
ember
LEFT
W3
hangs
##Cre
incomplete
Hey
xhtml
##root
Driver
95
QT
##OU
postgresql
##Mon
continuously
##Em
ship
guidelines
grateful
permut
puzz
descend
notified
##Pass
recorded
##idence
affects
die
Information
##ordered
ske
triggering
Smart
parenthesis
neat
unchecked
intu
##elocity
Unt
CRUD
##SV
vulner
plane
##artz
##hen
undo
overrides
overlapping
UITableViewCell
##ersey
##Files
##Many
compliant
clarification
faces
sequential
##oise
WIT
clearing
titles
extracting
##ned
##enames
##ai
Switch
##Connect
##46
##aste
##aver
established
##83
##plotlib
##Core
identifiers
Cassandra
wich
mor
##rolled
await
req
##icture
##Layer
nic
##alaxy
##71
glass
intr
Ste
##Qu
newest
##adcast
Side
backing
pref
XSD
wraps
##NA
Later
lowercase
UIScrollView
delegates
examine
DataContext
semantic
FY
##asper
##Acc
six
shuff
##Inte
dictionaries
##array
precedence
synchronize
killed
appearance
MP
##CC
Progress
heavi
panels
Additional
##hind
joining
Edition
shif
determines
reasonably
##encha
##client
CODE
synt
modifier
typedef
##erry
Route
DataGridView
ton
licens
remotely
splash
relying
Sales
Classes
##ffee
250
Lear
meteor
cleanup
##col
##IST
nuget
FAL
Types
Shell
innerHTML
##Database
##ackson
##Order
invoice
kick
losing
picking
gz
Super
Util
##Mail
convenience
##ira
derive
FAQ
Bind
##Port
##stack
##istory
Generate
noob
##med
External
##uing
countries
##ison
##OF
Cap
##Root
fundamental
btw
A2
Fore
submod
##li
##dated
repet
Subversion
Bad
viewmodel
CUD
FALSE
Calcul
110
Accept
##agick
2d
surely
et
codec
overloaded
Today
5000
abort
Regular
##INT
Drive
bugg
##php
validating
hg
keystore
##51
heavily
substitute
##cii
##Audio
Third
nearest
##atures
safari
STL
Agent
recipient
##avid
Doctrine
elab
dangerous
pasting
##bian
joined
##umeric
scenes
##CO
##Names
contexts
##GE
##inx
getters
aa
##onus
ell
Instance
skills
colon
##index
Mozilla
MSBuild
##ds
##state
mim
dy
##allow
##xxxx
subprocess
Turns
##Cal
Choose
##pad
demonstrate
extens
##going
candidate
feasible
scoped
javase
attacks
satisfy
modes
tagged
Flow
conversions
transitions
##InputStream
##Appear
occurrence
synth
##Proxy
##queue
ensures
Compare
##Exp
allocating
OPT
##une
nl
FYI
vars
DATA
##Args
observed
maxim
##arge
##ortoise
Brow
drawback
collector
introduction
deals
lightweight
CTRL
##NotFound
byt
projection
rebase
redraw
##Red
geometry
Alt
CUDA
##DU
EM
validated
recall
ibm
responsibility
texts
spell
stdin
feeds
Names
##ulp
Factory
Internal
overwriting
tack
##erik
inspector
##1111
##Position
simulation
##edy
artifacts
CORS
SUM
##comp
favorite
detecting
consecutive
browsing
Section
4th
retry
conform
hi
##SSL
populating
##ride
producing
##bench
##sets
##Manifest
##rot
Left
Camera
infrastructure
##format
assumptions
corners
##Obj
mesh
knew
##101
##graphy
preprocessor
study
##Enc
##autiful
combining
compact
UUID
##Results
##Folder
phrase
banner
WinForms
visited
##Gap
nv
Cond
##xis
##Spec
outdated
Poly
##Ass
##Sl
devise
dots
comfortable
##player
Created
GAE
outline
cheap
deletion
Oct
millions
Arrays
advert
complains
tight
ScrollView
Comment
##ansion
##Serializer
##eness
##Receiver
trusted
parses
boundaries
aspnet
Vim
Variable
##Current
##Entry
nullable
rc
sbt
wifi
TypeError
##hib
##Framework
##ounce
APK
##49
renderer
launches
illustrate
##RA
accomplished
filenames
bluetooth
netbeans
nib
96
##otify
##apture
##Finish
h1
Samsung
Sun
peer
dumb
TEXT
aspects
Lif
javadoc
homework
virtualenv
refreshed
##ommerce
##DataSource
bracket
tier
##ications
Ge
incremented
profiling
##imension
##asm
Opt
##sem
fan
alot
guest
Makefile
department
##inks
LL
Instr
##Next
syntact
networking
Parameter
rand
##Api
unload
exporting
submits
lag
##ogram
Products
##issions
##marks
unsafe
mixing
##aur
##Gu
stating
512
notepad
modul
claims
Inf
Configure
bb
##Os
##cell
charm
readonly
##bership
unmanaged
thor
Light
album
autoload
SSRS
SN
##CK
attaching
succ
##emplates
divided
##UM
bundles
UNIX
reloading
provisioning
slowly
accum
weights
schemas
summar
Defin
arrange
##count
gg
bear
goto
##outine
accepting
##Changes
timeline
##roke
People
##orrow
clang
##elist
mandatory
persisted
Div
gon
occurrences
delivery
suited
marsh
medium
##tery
CRM
32bit
guarantees
detects
subviews
##onal
##Met
Story
##dc
##ificate
apolog
##dev
avoided
Notepad
##icket
Mock
Buffered
WebS
sf
leaf
Prim
Controls
##ora
CV
stum
clarity
unpack
graphic
##ILE
Groovy
AndroidRuntime
##Supp
noise
kb
nobody
Drag
##03
NSLog
ann
##olders
interop
Navig
hardcoded
##raries
wer
delimited
##aling
dropbox
Easy
##rlang
toolkit
codeigniter
##Top
deeper
crop
correl
Anything
Hard
57
Goog
##ends
##42
conclusion
sqlite3
Singleton
##2008
Length
JMS
scaled
iterators
outcome
reality
codeplex
became
scanner
sparse
outputting
aggregation
##Product
networks
screenshots
xampp
cour
subscript
associative
2x
jetty
amp
talks
dlls
popover
qualified
##══
datastore
Things
answering
##STR
inverse
Require
pandas
##asure
Managed
##antom
decorator
pulls
swing
##tw
scores
responds
operand
##nostic
cleaned
bookmark
invokes
DataSource
Enum
w3s
IE6
##atable
##Ag
whichever
##charts
##hicle
Designer
analog
consistency
transm
OF
ing
CakePHP
##ipt
IDEA
Cred
fallback
Cross
manages
delivered
Js
culture
stamp
##ITE
recipe
hur
matplotlib
HK
##mon
##rs
##Contract
RPC
consideration
versus
launcher
Inno
##Scope
substr
uint
##mmet
textures
##mq
scrollview
##timate
##olved
evaluating
decides
##OUR
clipboard
trade
XX
timestamps
##part
##OST
##SP
win32
dispose
Deployment
rounding
##bles
scopes
Website
MD5
scanf
##Bit
Raz
ionic
lives
compares
carousel
rectangles
NA
Mysql
observer
##Values
JAXB
Chart
##iki
##agers
constructs
##ufact
##Events
mp4
##esign
##Network
Blog
struts
prone
scalar
##Sharp
majority
CONT
##handled
##ito
bullet
Docs
##CollectionView
SDL
renaming
openssl
MSI
workarounds
PhoneGap
##utter
instantly
actor
Assign
resides
autore
Ign
silverlight
visitor
associations
bytecode
##Mat
Fr
AES
h2
IR
widths
##Animation
AUT
strt
66
##HTTP
smoothly
Upon
reusable
##rocess
ful
Dispose
makefile
##81
repos
##image
datasets
responding
PID
##notation
falls
##Mapper
Debian
whilst
JavaFX
TYPE
Notes
violation
authors
shortest
180
##Cloud
##INE
Layer
CDN
##Fi
##claimer
##Aut
incrementing
Lock
shipping
shorten
Models
demos
sin
jpeg
Libraries
bub
##imp
401
Lucene
t1
##aby
gonna
SF
grows
draggable
rotated
backbone
Building
##ario
embedding
##sq
scheduling
Geo
##plate
rt
unordered
##eature
scanning
ownership
w3schools
codebase
Starting
m2
annotated
estimate
##icon
editors
##Cat
##ICE
javac
##ORK
Expand
##ycler
##fx
Univers
Press
Integration
downside
JNI
##Converter
##driver
##anf
accordion
301
##DC
expire
Razor
variation
bellow
clustered
##Parameter
##uggest
ALT
Guid
determining
teams
Above
shed
##isense
##HttpRequest
XY
intro
##omething
MK
##nel
importantly
Join
syml
##82
Alert
MQ
cave
SOL
Computer
Derived
##uence
##comment
thumbnails
LAN
mot
composition
Fast
##char
nth
YYY
thousand
ANSI
Vert
freez
stumped
surprising
rejected
massive
mechanisms
dropping
##brid
tf
##85
tons
fewer
MPI
elasticsearch
subr
isolated
preferable
##Flow
##06
bank
##ecore
Monitor
bridge
unb
Especially
sliding
Pres
##ba
reflected
wind
UITextField
Center
##rate
jsbin
##GW
##No
regression
enhance
##usted
investigate
##ONE
rein
ascii
Handle
hands
essential
pm
decoding
Gmail
NT
##erman
integrity
calculates
##points
##87
flav
##phere
##aller
corrected
##Upload
##ods
IL
Structure
duplication
zend
sprites
retrieves
migrating
MSS
fourth
##ibbon
##uation
thorough
Rect
##agger
##onical
ANY
##95
##rep
compose
plots
authorized
catching
Comb
separation
segmentation
INTO
Io
##button
##000000
involving
Authorization
##rolling
bi
MFC
expansion
backed
##Comple
Obj
nesting
##Off
constructing
DC
PRI
gwt
##tool
primarily
Pa
mathematical
##ahead
desire
isnt
Tortoise
Terminal
sanit
##service
Signal
crashed
GMT
##olve
Fixed
widely
omitted
precomp
apis
##Each
prices
alerts
dam
enumerate
RSA
adjacent
##PN
opport
naturally
ancest
##irable
playback
##PATH
achieving
##cd
##MBER
##onom
hub
ActionBar
inn
Ye
Watch
codeproject
Values
WIN
ack
mono
##sub
Mvc
encour
fed
assertion
Blue
##Vari
buffering
##flows
##pages
##ATA
sensible
resolving
##Init
##rok
draws
illegal
avoids
##Login
enumeration
Anybody
consistently
##havior
reliably
##QUEST
availability
transparency
jumps
led
Really
##Account
userid
assistance
runner
Submit
##late
Arduino
ACTION
cout
instantiation
setInterval
##Title
##Vis
cloned
##Var
exposes
cleaning
bubble
overlook
relate
mic
##65
##urer
##Pop
Neither
QA
recommendations
semicolon
legend
Clojure
unchanged
Unc
##ulates
digging
##a2
MET
incompatible
REPL
intensive
##formed
##SH
invalidate
CLASS
indentation
battery
anyways
overloading
ROOT
Syn
validations
##umes
extent
Pages
hive
##Disp
Kn
tm
##nk
##MI
##ao
brute
##LP
ak
##Transaction
Icon
cos
intuitive
squares
Ms
##Wrapper
Exchange
occasionally
pol
experimenting
##Null
thin
Cast
recompile
Extensions
Making
unwanted
##ignore
multipart
unf
initWith
##Integer
emulate
directed
Merc
##alls
Fiddler
##olver
##aved
IPv
##Managed
Reflection
##Body
elaborate
Writing
Detail
Normal
sig
density
reused
subdirectory
configurable
##Profile
organize
##Target
##BB
vc
##Chart
graphical
weren
codepen
END
##Intent
VARCHAR
nb
##Is
skin
variants
##ocos2d
delayed
OUT
##Igniter
mailing
MIME
##uable
freeze
anti
np
##Progress
##erning
GCM
equally
##report
Manifest
p2
##aused
Removing
quicker
Broadcast
XHTML
substitution
manipulating
x1
releasing
Day
##fire
Galaxy
##select
Functions
affecting
sometime
Correct
Cancel
Air
reducing
consumed
intersect
assigns
producer
cities
Article
asax
##123
websocket
##92
DropDown
initiate
##bucket
mapper
##agrams
LOG
estim
tweets
doubles
##Me
digital
synthes
##ribly
Vol
Attach
misunderstanding
Bu
mb
compet
contrast
##AAAA
##omial
##ampa
uppercase
RA
Symb
ANT
Primary
unav
##osable
expiration
##RF
charge
City
Tables
##ottom
ordinary
closely
particip
##Sign
##a1
cURL
Loading
InputStream
Sit
pushes
Uri
informations
Until
##phas
natively
formulas
403
##straint
bur
LIMIT
enfor
naive
NSMutableArray
newlines
succeeded
patient
##olid
dotnet
##works
##567
satisfied
##MM
##acker
dialogs
proport
##args
##Views
Private
##ffff
indirect
nicer
concise
VB6
differentiate
##ae
scrolled
tracks
terrible
Restart
ut
MYSQL
birth
##Length
Compile
Zip
reopen
##ipy
Hor
Reader
Construct
routines
SWF
edits
##Only
##00000
LIB
OB
ambiguous
AndroidManifest
JIT
TEST
##LEASE
pad
##ensitive
composed
Matrix
whit
mime
pros
Origin
stripped
grace
draft
driving
##issing
histogram
##jb
Subl
##quence
concurrently
Couch
Dig
##cache
##Active
dp
Sync
CodeIgniter
JPEG
succeeds
ted
##chemy
instrument
StringBuilder
appengine
##Bo
Ive
Simulator
apologize
##Transform
##eside
mistaken
conj
instantiating
##ni
Alex
isolation
fetches
ram
##EL
observ
Bash
aliases
shortcuts
##asty
##derr
Complete
webpack
##ORD
##ampaign
##att
##grind
isolate
POC
##inese
packaged
improvements
UNION
Sonar
Variables
Tel
gzip
cmake
speech
REQUEST
ci
Idea
thru
RDB
voice
terminates
Initialize
consumption
Migr
##Te
exclusive
76
##OutputStream
prag
ViewPager
signatures
touched
cro
Examples
##uz
Three
conversation
Pi
##cks
presume
folks
86
##Rule
##Level
safer
integrating
Parallel
##ops
surrounding
partitions
screw
Parameters
clustering
BO
Results
Feb
chrom
argv
##Br
##Save
owned
##Icon
##ORM
calculator
IC
##NN
forwarding
Lisp
##atial
Extract
##emap
sms
JText
##docs
MSSQL
bitwise
hell
##ocument
replies
gnu
##loc
regularly
raises
##isting
transp
suggesting
##ruption
B2
expires
p1
Bob
complaining
##UL
navigating
bundled
##pre
sharepoint
##ho
signs
Country
WITH
##Job
##erpt
gulp
COL
Tasks
broker
impression
RelativeLayout
stderr
EOF
##reens
incred
pipes
Pret
quir
##initialized
##09
neo
tensor
##WP
AppDelegate
Manual
##graphic
STR
Own
sole
##ClickListener
semaph
##Bl
Optim
##Executor
shopping
##urring
##och
##outh
playlist
Uncaught
CK
##cloud
dragged
velocity
cygwin
##lig
authorize
arc
##myadmin
attachments
differs
##Something
NEW
modular
Whatever
delta
alternatively
##Types
md5
##activ
ground
hood
Fields
mails
ce
nest
camel
##elery
F5
##47
slug
Sublime
Batch
viewController
ROW
##Left
xl
##aker
arraylist
approximately
Break
x2
complain
limiting
tweet
usb
##wo
varying
Encoding
##za
bounding
fatal
collisions
##itate
cars
Architect
connectivity
##ids
billing
BL
##sqld
timed
Apply
VL
lengths
yaml
Month
demonstrates
tracker
ro
Entry
##MyAdmin
adopt
Gemfile
##DEX
brought
YYYY
eye
##Bytes
elect
##IZE
Rout
DBMS
##brew
forb
##Tools
Present
##Py
Initially
confuse
##JECT
tedious
##elf
##Js
Yii
BS
##ferent
##avity
72
brain
rolling
Embedd
histor
emphas
##ARE
monad
heart
dbo
ans
##aspberry
guard
PI
rotating
determin
viable
obsc
malicious
silently
Widget
permanent
consisting
cassandra
##panel
POJ
plans
Isn
##emy
8000
##dpi
EXT
Jon
lua
##Handle
pun
GS
Selection
phpmyadmin
fullscreen
cellFor
##Holder
recognition
readers
backward
##ki
resulted
tid
varies
adobe
Administrator
drawer
##alina
320
unset
mini
SEO
##Param
tracked
Channel
notebook
stumbled
##adecimal
CentOS
##Alert
David
CASE
virt
##Ptr
researching
##Python
python2
erase
builtin
boiler
##a€™s
##ram
##affold
##pler
Sep
Protocol
Dan
incorporate
Dispatcher
wat
inheriting
amaz
##Params
##Recogn
##rection
##shell
Surface
Lambda
##kb
Stored
curly
##Lock
administr
##coming
Effect
Loader
Atom
UML
Nginx
ActiveX
identifying
unusual
getView
classification
Theme
##aus
dog
specifications
##URE
UTF8
leverage
##rientation
canonical
manufact
v7
Hive
ObservableCollection
Doesn
wave
sequentially
scrollable
cond
##Channel
uncomment
Kindly
Gen
Debugging
Processing
##versal
slots
Entities
unity
Dot
##──
mouseover
slashes
##rement
##43
wrappers
Radio
OLE
Year
eq
encapsulate
##behind
UINavigationController
##aque
subfolder
##apid
Execution
VALUE
cul
Preview
infer
TV
issued
inconsistent
Struts
##lr
Lastly
table1
HttpContext
##Dest
##oda
NV
clauses
##Rows
serializer
transferred
##ACE
catalina
chooses
comprehension
Distrib
Runnable
##esc
##IW
NSDictionary
##object
Powershell
##Renderer
dojo
Character
Member
skipped
Cursor
fixt
tele
Mercurial
63
##Member
templating
altered
Jetty
sing
iis
##isted
MyApp
stylesheets
Picture
floor
formatter
Laz
axes
horrible
##001
gp
slideshow
Proced
kindly
Toolkit
MSVC
##acon
##Authentication
##ressed
Dest
OpenSSL
seemingly
localStorage
HDFS
unre
hacky
##Show
JMeter
##uary
wamp
##usters
##NotFoundException
enums
##ormal
##SVN
cn
plotting
morning
upstream
resolves
##proj
growing
Concurrent
Int32
Cygwin
Suggest
symbolic
transformed
optimizer
dropdownlist
Articles
##KB
Flask
visually
Jav
##ediction
increments
Cookie
Original
Injection
rewritten
##41
writ
##HR
##Cast
ONE
##Password
##olicies
##rac
uni
##riber
acquire
Might
DB2
harm
transformations
attacker
MT
barcode
SR
##ctype
##lyph
Sprite
aster
##Resume
reduces
Know
scalable
primitives
RDBMS
SUB
##Defaults
DataSet
granted
##Launch
reput
health
##aches
##Properties
##Xml
##ingw
##etary
MinGW
neo4j
tends
balancer
accessor
transforms
visitors
CAN
CUR
GH
##08
sprint
truncated
##Bounds
##qual
hasht
untested
##roj
##AST
sup
##Sw
##ounting
digest
interpolation
Hyper
##Num
scipy
hh
hole
##Controllers
parad
indication
Hot
##a€™t
Fetch
chmod
CGI
##uda
logically
cascade
##hark
Pretty
##Preferences
##imited
funny
B1
nasty
picks
##ught
addon
CMD
yahoo
polymorphism
QU
explore
##fault
interf
upt
Organ
##ucumber
suffice
a1
specialized
Empty
CURL
truth
##angular
##els
proxies
Crystal
exha
emp
##upported
CHAR
##CM
seq
##Co
##iro
##inner
sitting
Modify
##scriber
Soap
Position
approved
STAT
coe
Pur
bg
arrows
##Parent
decrement
endian
Indeed
reorder
mentioning
##theless
Php
##aching
t2
inventory
ru
##def
##Seg
Used
buggy
Apart
contr
##oggle
##codes
##layout
doctrine
Insp
payments
##93
##NER
frustrating
##roject
longest
excluding
##author
multid
##IEW
ring
wpf
ENT
Ear
##udge
##ighter
##imensional
##pha
##elt
##Sheet
Neo
apache2
##UB
##onday
vagrant
hate
ought
Ensure
descending
fd
scatter
Whats
staff
Thats
cx
##Focus
Partial
SAS
hexadecimal
gitignore
modifies
Base64
##Initial
ther
ds
weather
MainWindow
tenant
Stackoverflow
Old
sass
extensive
##sharp
explo
Conf
##irus
##05
##ireshark
##joy
courses
caption
##alf
explode
culpr
shuffle
##Visible
References
diagn
OW
Movie
persists
##Expression
Concept
NSDate
BOO
adm
utilities
insensitive
complement
comprom
Algorithm
##Identifier
##Resolver
optimizing
Validate
normalized
##FO
##91
HERE
traver
everybody
remainder
architectures
conflicting
##itors
##bert
joom
##XXXX
##Processor
Refresh
consult
interpol
Introd
Worker
deriv
##TextBox
Fil
expands
UICollectionView
##ometer
clo
robot
propri
##hr
ipad
knockout
InnoDB
legit
styled
watching
##lose
XAMP
Meaning
##OB
bc
existed
validates
fro
##Prop
##actor
IDisp
sizing
formal
##Viewer
Pract
##por
##onda
drops
##Graphics
creator
##zer
opportunity
Repl
tie
sonar
unsu
Reports
Coll
##iser
regener
##rap
##fol
##Selection
introducing
Feed
##AIL
subtle
Merge
##inject
Storyboard
##Font
activation
Checkout
Fill
ascending
curs
SP1
physics
trip
##Rem
rspec
##mmetric
##house
MIN
Cold
##Receive
goals
becoming
##ERY
magnit
##2c
DIST
sym
typeof
##Gesture
Their
##game
##quare
versioning
##61
Shouldn
##97
uninitialized
principles
##FFFF
sr
##Fetch
XE
THIS
assignments
preceding
DTO
Community
princ
stacktrace
Small
Different
realise
##yle
integral
lt
buffered
clusters
exports
Membership
Reason
colored
##Detail
##World
##Formatter
consumers
arrive
Trace
scales
polygons
Transform
W3C
motion
##java
ow
Rabbit
csp
teacher
ACCESS
seam
tc
##lin
flatten
xlsx
wake
cfg
XMLHttpRequest
NDK
Quartz
##land
##ration
audit
Ord
wcf
proportion
favour
contiguous
Interesting
HH
Mich
shoot
packaging
##omb
exposing
##Section
Tiny
Fig
##67
treats
strategies
calc
wav
##osal
engineer
PRE
##andon
HttpClient
serializing
67
sits
##ecast
DESC
Width
Was
offered
##City
sortable
adjusted
Online
##arent
beforehand
inch
optionally
mocking
ADT
##umbersome
Bug
##Write
LOCAL
##62
pyp
removal
commenting
##idgets
metric
Appro
AS3
##wer
Fortran
memcached
joomla
liner
UITextView
Methods
##itan
##semble
GIT
##ouple
##Bitmap
fopen
badly
managers
##gar
excerpt
cumbersome
Illegal
theoretically
bonus
junit
failures
##Bind
touching
##Center
Eu
Override
spans
Expected
ang
Solved
glassfish
engineering
##solete
fancybox
##ListView
Username
January
descriptors
scss
##abic
nowhere
XAMPP
customization
Required
Columns
visits
Undefined
##18n
Else
Scanner
targeted
J2
bower
declares
SSMS
street
truncate
iterates
separating
Func
##Category
imageview
stateless
incredibly
hashed
polymorphic
chances
##nostics
##ariant
strc
conjunction
binds
##PropertyChanged
rol
##Support
Pool
##alling
##Last
##bars
DbContext
hashCode
normalize
eb
seriously
##Copy
retained
assembler
##Bus
ThreadPool
noting
doll
##Fields
irr
##Gi
##Debug
##Html
patches
props
ggplot
OU
iFrame
dos
##gh
Jackson
DOS
coupled
hovering
Height
##leton
onResume
signup
Contains
ensuring
terminology
cakephp
GAC
internals
reputation
AIR
Installer
##irectories
111
reside
DIS
##urry
hacks
WARN
utils
Photo
opaque
coefficient
pseudocode
##oman
##mber
wget
mc
##lly
Sound
prediction
##ius
97
specifier
##iers
RES
temper
mingw
##acc
##raft
Frameworks
INDEX
##EventListener
Drawing
##stood
arises
YOUR
kit
educ
conn
Branch
##Ke
##nomial
outlined
Price
ticks
globals
professional
##LES
culprit
beside
##apis
##alysis
##Plugin
Prime
hierarchical
sqrt
NSData
categor
##Develop
Edited
smtp
TL
INST
gt
##anks
rer
exceeds
paradig
drives
C99
imply
htdocs
##aj
repair
poster
##browser
prompted
##TT
controlling
##Prot
TypeScript
captures
Serializable
SB
Bill
Must
translates
compound
file1
unl
coffee
colours
filed
##Ind
organized
unavailable
Frag
##07
viewWill
refreshes
DOC
##Java
mysqld
deferred
Disclaimer
##MX
Altern
localization
MacOS
##Game
Keyboard
Screens
dc
##kinter
specifics
Interop
##imals
subroutine
localized
realtime
##63
destro
0x00
Inner
publicly
##ulations
lookups
liked
Op
Inher
NUMBER
reinvent
sentences
Foreign
Feature
TreeView
Btw
dispatcher
OPTION
populates
timers
##brev
##studio
frequent
CB
##yc
##Bound
evil
DAL
##Json
expressed
Num
Attempt
travel
cocos2d
##Mapping
valuable
Equals
ray
addressed
##acke
Who
Phonegap
recreated
disposed
retrieval
quer
correction
Contents
RegEx
eyes
##etype
relates
argue
Jersey
##Magick
throughput
HD
##ategy
##Matrix
novice
reveal
indexOf
##usive
keypress
mins
##llib
operands
clues
sticky
CAS
reloaded
acting
specially
trap
##Compar
BI
outlook
log4
Kafka
scaffold
##If
Cir
NSUser
##Offset
XSS
##ev
360
Sys
hass
parsers
Cart
hybrid
Universal
VST
incremental
encountering
##Del
redef
Somehow
Disable
querystring
nut
Glassfish
submodule
Controllers
Developers
Lazy
BB
##fb
votes
exiting
jre
counters
##Ret
##rent
zA
T1
magnitude
orange
##soever
##odate
communicating
misle
Rule
Certificate
Fed
##Mult
NodeJS
AVD
Edge
Kit
soph
Wrap
Mart
cms
porting
Market
DIR
vanilla
##bird
##mode
JSONP
C2
Reset
##tools
quiz
##job
##Max
placement
poorly
uninstalled
transactional
News
preload
mySQL
proprietary
doable
RELEASE
Exceptions
prompts
##TabBar
##guard
##secure
allocator
##Div
greedy
tex
##apers
periods
3A
Erlang
foundation
alphabet
##Security
gtk
DEMO
resetting
##folio
Oft
##Timer
##Invoke
aaa
2006
AFT
consumes
##x4
eager
##PO
CheckBox
Feel
Statement
repaint
62
facility
whatsoever
loses
wider
##stat
jira
suffer
scrape
finite
swapping
tt
##met
Transfer
faq
nt
##CD
##cam
##udson
promises
##Tables
spending
##ilio
persons
C1
Sem
tv
##Site
injecting
Ultimately
surprise
##elect
agents
ple
boilerplate
##Fox
telnet
grasp
##iously
AFTER
Parser
equations
Usage
getElements
##Match
Secure
explanations
##shake
enclosing
##ppy
studying
AMD
Tests
navigator
Sitecore
unhandled
archives
##Recognizer
shorth
jqGrid
Assert
WiFi
SignalR
##doc
MVC3
Policy
Groups
5th
challeng
Returns
##edit
Devise
concatenated
##appy
wsgi
symlink
NUnit
firm
grabbing
od
excess
##Runner
##Faces
brew
downs
cin
descriptions
##inds
multiprocess
##Proc
Related
behaviors
Changed
animating
Special
appends
jax
expanding
##izontal
reviews
Friend
killing
HashSet
eu
##otten
offsets
bought
IV
Form1
threw
chip
TableView
##Hz
elapsed
obsolete
Being
pkg
Eval
Throw
admit
##VAL
docx
Beta
##meter
##ked
##hook
8859
VisualStudio
traversal
csproj
Culture
tracing
81
Cook
##fd
Yahoo
zooming
##INCT
permanently
policies
refman
##king
ist
splits
prefixes
Scheme
bid
classifier
##ernary
generators
tur
heights
repeats
sophist
egg
##Queryable
##LR
NB
initiated
outgoing
AppDomain
queried
iText
rapid
VPN
hair
diagrams
gh
skipping
tough
clou
##´t
peak
XSL
##http
featured
Attributes
isset
jvm
##Iter
misunderstood
DISTINCT
difficulties
##ball
journ
webdriver
##abor
##ascal
Googling
##Func
MUST
serv
Rows
##unately
##inction
Dash
##386
##alcul
##Dev
Bottom
Often
cellForRowAtIndexPath
concerning
permutations
##nkr
Avoid
##Storm
##ACH
ACL
adapted
Future
Kernel
recv
fc
VS2008
excluded
realloc
Prior
actively
Space
flicker
arrives
presenting
figures
ko
78
movies
gravity
dumps
measures
Clearly
translations
grade
correlation
transmit
##quis
##enario
asm
toolbox
DropDownList
##IVE
##IGHT
##Zone
publisher
Sharepoint
##PORT
checksum
Considering
troubleshooting
vo
serializable
##eled
Dropbox
##ERS
Abs
unsuccess
##ula
repeater
Argument
89
##aud
inactive
LLVM
FS
food
##ado
CTE
MDN
subversion
quotation
shorthand
occured
##icast
survey
tackle
##ACT
prepend
dylib
##inity
Checking
unzip
Threads
restored
Animation
listens
technet
collation
##aconda
##abs
480
SAML
visualization
backups
holder
sid
Putting
reth
keyst
glyph
pls
merges
distinction
broke
interpretation
executables
##weet
interacting
parameterized
rgb
iterative
##Def
reversed
##atables
stacked
JTable
CPUs
D3
cloning
rolled
Embedded
googleapis
Chinese
##croll
##visor
closures
Telerik
appoint
campaign
##make
ec2
triangles
##reeze
interactions
##iel
Border
counted
allocates
OSGi
WORK
##Bag
Changes
toler
intran
##Mark
reasoning
Operation
accurately
##OWN
##lector
Scripts
covering
allocations
START
CSRF
preventDefault
dereference
penal
History
##xchange
submenu
polynomial
clears
Axis
test1
Much
##iance
Aug
Eg
H2
##otype
painful
##hy
UIKit
alphan
hanging
##well
Uns
pointless
multidimensional
##ocommerce
glad
POM
##teness
uniqu
FIN
##upload
stroke
WW
##istence
libg
s1
##edient
##800
Chris
visualize
externally
Declare
ancestor
setContent
crypt
deactiv
prere
lightbox
Subject
anytime
delegation
Keys
VS2012
AppData
webapps
abbrev
migrated
##GIN
relating
OpenID
overloads
NAT
decoded
enclosed
Emulator
datagridview
wo
##buffer
##Can
imageView
getElementsBy
toast
##obar
WR
subclassing
plnkr
mil
##Route
AI
observations
Kendo
##YS
portlet
Errors
honestly
disconnected
##icul
dock
Elements
crawl
##night
Fluent
XYZ
fluid
ENV
blind
Logging
preserved
setText
ALTER
mt
##dfs
##ackexchange
POJO
Came
permitted
Installed
##manager
##atra
Const
intranet
terminating
onchange
pt
coupling
##Modal
Micro
Verify
grand
Iron
##iri
##ioned
Lists
FORM
74
lie
##Stop
accessibility
hassle
##uber
similarity
Mapping
buckets
multil
Unlike
sophisticated
python3
##FAULT
##ManagedObject
IoC
facet
djang
##vn
Commons
pager
runnable
viewcontroller
sums
WebBrowser
freezes
##4J
subscriptions
bitmaps
misleading
deallocated
altering
##onomy
Components
##addy
##SION
XNA
msi
intellisense
##PDF
##ja
fulfill
disadvantage
Repeat
TextBlock
##Validator
unread
Poss
##sort
svc
##fit
71
cb
##Orientation
operates
##VICE
Owner
Less
Prolog
LinkedList
paragraphs
Pip
microp
observation
##efinition
reaching
dividing
presents
mimic
artist
##Role
IBOut
resolutions
##den
HttpServlet
v0
Contacts
INotify
DirectX
##clip
##Long
##O2
##ama
rss
Authent
##icorn
Area
owns
disadvantages
AST
##rob
La
xmlns
##dx
characteristics
##iet
ambigu
GTK
1px
Eventually
DW
FFT
##SDK
Ionic
proj
apparent
meantime
forgotten
Paypal
JQ
Thing
##OCK
bashrc
receipt
##built
##ada
Iam
purchased
hardly
onP
##AGS
measurement
interview
realm
gaps
##comm
##IDE
bright
160
sampling
##ctl
termination
baz
stash
Modified
Dim
Alarm
Datas
README
##igen
decryption
##mbrac
##Argument
placeholders
stackexchange
##das
hoc
queued
Sty
##bra
##RECT
Tra
##InBackground
##Destroy
encapsulation
IList
3x
timeouts
##Decimal
Jar
centre
##import
initialise
privacy
xxxx
succes
##aris
##1234
comprehensive
WA
##mbraco
Mage
essence
mit
##ptr
cub
phpMyAdmin
##Statement
revisions
completeness
vendors
##ILL
##MPP
Anyways
Modern
reconnect
Blob
gs
table2
##stalk
outlet
Zero
OC
TDD
urllib
##ico
INNER
II
sdcard
acknow
ternary
##gredient
SHA1
Comments
700
##YTH
I´
userId
sale
functioning
ish
subsequently
shares
scalability
heur
RabbitMQ
Going
Modules
ZIP
Region
##Schem
##riage
WebSocket
##Parse
stages
corruption
77
Helper
##fa
conditionally
61
disappeared
92
Pointer
ol
##authorized
stringify
##MCE
rearr
biz
##Option
parseInt
Templates
##apan
Ben
Agg
REF
tensorflow
taps
##aked
selections
3G
Passing
Screenshot
##rum
grids
ACT
nu
delimiters
triple
Seg
SDKs
imperson
##Scene
##debug
##incipal
vast
discour
webm
DDL
Sever
##atar
phtml
water
identifies
##IV
whitelist
Animal
Specification
clojure
experimental
chaining
Success
FireFox
Actual
##Wh
##thernet
neural
maintains
Serialization
Headers
##Dec
multithreading
discount
twig
UITabBar
Debugger
autorelease
measured
Through
##Mouse
influence
cipher
dozen
##Trace
0x0
annotate
xc
Questions
##eterm
abandon
SSO
promising
oh
Cluster
dm
pit
superview
fidd
##Perm
introduces
IDisposable
tpl
treating
sketch
commandline
HAV
sphere
Rev
notion
Body
suits
Gallery
##Card
balancing
cookbook
adjusting
Recycler
##Calendar
Jet
historical
reass
Rectangle
Exper
cront
Trigger
captcha
hurt
intrins
awkward
secured
META
initializers
Mike
hacking
##cale
PAR
##icip
Bal
Retrie
Michael
Depends
mx
meets
##rees
strength
FU
MAMP
propose
reloads
UITableViewController
physically
sugar
findView
computations
68
##Enter
indust
recie
##Byte
##eatures
resh
intellig
recovery
gracefully
curr
##Keys
scrollView
Popup
Done
Neo4j
Shape
analyzer
understandable
bubb
floated
bread
test2
monthly
mob
Checked
Missing
##hood
interceptor
##ASH
uniqueness
OAuth2
ho
fluent
semaphore
##cy
##Fusion
Green
Sam
ldap
##adays
TAB
##lders
subscriber
##ceptor
painting
IQueryable
opengl
awt
Dri
POCO
Meta
subdirectories
reachable
fight
Pick
accomm
advised
##Chain
##Cr
resets
starter
acceleration
Resp
Summary
HA
##Cursor
shaders
BOOL
HOW
Activities
intact
Den
Actions
##Attributes
MAN
unh
researched
mapred
WAMP
scans
##using
unst
jumping
convin
82
Pat
##Description
exclus
RET
##ridge
Technically
glance
JWT
Tested
cuda
Permission
##Pay
Prefer
Heres
summarize
Dom
rack
##velope
Clicking
initialised
234
##criptor
Spl
Plan
##Media
##Policy
adress
##di
Includ
weblogic
Append
flask
Way
##utils
##utral
##station
##ca
##ialect
declarative
hey
temperature
songs
CoreData
Gl
DEFAULT
Win7
L2
Lion
startActivity
uniquely
Fragments
Wiki
NSUserDefaults
##Compat
epoch
deterministic
desirable
insights
##OfMemory
bitbucket
addressing
##oy
offic
##util
autos
paradigm
beautiful
##mentioned
Previously
##256
additionally
##rial
couch
Paul
443
raster
utilizing
##509
logins
##Qt
station
intel
inflate
Ninject
encodings
MF
OData
##ilation
xslt
Material
scraping
planned
Fail
CAT
Reporting
john
deny
##Cond
largely
Learn
##VO
302
prefixed
##ardless
##loat
rub
indexPath
asyn
##ToMany
idiomatic
##NET
Registry
WSO2
Messages
alongside
##ComboBox
##traction
Youtube
Navigate
gender
##DataSet
dozens
happily
##Pixel
dual
##Loop
##eff
configs
webservices
snap
79
xp
international
Gateway
ware
iframes
performant
ascx
Decimal
modulo
stacks
##track
DSL
hovered
##Min
gran
hypoth
Jul
sencha
SI
Unique
fool
rates
initi
##otate
##inator
vehicle
rabbit
hl
decisions
WMI
##cores
geoc
##Ctrl
servlets
DRY
lived
ToList
mounted
NP
skeleton
Analysis
12345
##eath
shifting
Implementation
##uses
investigation
crontab
bootstr
##Present
dies
tune
Procedure
principal
handshake
magically
credential
JLabel
iCloud
strlen
practically
##NC
anchors
Horizontal
ultimate
undes
swip
Diag
84
REG
##NF
subl
SQ
smell
##ups
##ears
##asmine
urlenc
##hack
##Variable
a2
##LOB
amazing
##RENT
##x1
i18n
##with
arise
Forums
belonging
##UES
markdown
ic
##las
##RESS
##Email
implications
##Controls
continuing
##olocation
Sleep
Dog
Monday
offending
realised
69
##Pers
acces
celery
xm
extras
Delegate
##GR
css3
gig
Catalog
##Video
countdown
Jun
duplicating
TeamCity
##bits
##website
glib
Threading
Router
php5
partitioning
representations
##arma
UIApplication
discarded
distances
Production
Nat
nulls
##lette
casts
lookahead
fruit
T2
##eploy
Inspector
elem
Contract
Professional
reinstalling
UDF
4000
CX
landing
NoSQL
##register
Front
recommends
Fatal
Named
initializes
##resolved
balanced
usercontrol
NSObject
##MARY
backslashes
laz
rig
##CAT
textField
NSManagedObject
365
trait
maintainable
discovery
EntityManager
upto
94
IDENT
Installing
##ocumented
##aad
ColdFusion
##Rel
Chapter
TS
Viewer
experts
findViewById
QR
SAP
##uppet
##boot
f1
portions
##apply
administration
functionalities
caveat
marking
##Empty
ejb
Tags
pooling
Paste
Introduction
GDB
Rx
Ak
102
BAD
Sencha
Modal
actors
bla
##AF
extraction
##lling
BroadcastReceiver
Pivot
##Single
ECMA
phr
Iterator
##istrib
Rever
deciding
##rer
cab
deserialization
##rist
##elled
##va
syntactic
##function
c1
unp
##from
EXIST
##iments
Whereas
keyup
modeling
Camel
executor
##Cred
IPs
siblings
uncomm
TOP
tunnel
##ubernet
V2
behaving
GIF
##atica
multithreaded
quirks
Regardless
##ader
Asso
descriptive
derefer
committing
##rf
encourage
headache
inbox
##tractor
memcpy
cov
grabs
##mare
lucky
VMs
Float
##Generator
Payment
yeah
disallow
refs
Scenario
##antic
##STAMP
##ubernetes
EXEC
##obuf
##content
har
subfolders
spatial
log4net
highcharts
propagate
HKEY
MID
discussions
900
packed
Chrom
##queries
alphanumeric
BC
Kin
##sheets
##Annotation
textView
Plugins
multiprocessing
colleague
JR
visiting
blow
##isable
minified
##var
Possibly
restarts
##vex
labeled
Review
##Do
tuning
##mount
Disc
ImageMagick
Sadly
##GV
segfault
sat
##Ms
cleanly
caret
Titan
recalcul
YAML
afore
Exit
Spread
##pred
93
confident
fish
file2
Luck
Links
debugged
##ORY
comparator
onPause
##DateTime
indefin
##uem
##uk
UK
SharedPreferences
0px
Likewise
##TR
pd
##NDI
Crypto
##least
##activity
##RIPT
Separ
##asy
neutral
Heap
excuse
concatenating
Aw
##inue
Started
Roles
##notations
inconsist
batches
IEEE
Synchron
tweaking
##Gen
##ening
##COM
Marsh
throt
freely
unlimited
silent
memcache
branching
sour
terribly
esp
##CEPT
resultset
MediaPlayer
##amper
Ignore
##sight
approximation
validity
GDI
thereby
##WebRequest
nbsp
##menu
Commit
expr
Instant
73
trough
interrupted
777
##angling
Taking
##unker
##Rest
##onsive
##IRC
tin
writable
##Sort
xamarin
adapters
Advance
##ifiable
assertions
inclusion
BOM
##post
datac
##onstruct
undocumented
VIEW
P2
defer
transient
##Package
XMPP
privilege
##Space
OutOfMemory
##hs
obscure
ActionScript
hpp
portfolio
IE10
puzzle
armv
Strange
##zier
au
lacking
definitive
##parse
##vin
apologies
og
vimrc
permit
##Mock
MODE
##beit
Wel
##esian
##rant
XOR
noticeable
##rope
nightmare
meg
monitors
collecting
lacks
asterisk
decimals
earth
baseline
##Sharper
##gebra
underscores
##bf
##odec
reusing
ZF
habit
shard
experiences
rooms
detached
##cards
VERSION
boss
##Requ
VALUES
checker
Simpl
scient
##osp
flexbox
nc
du
onPost
Rack
VPS
##auss
binded
##Clip
quoting
Realm
JNDI
##agement
##56789
pow
laid
##ignment
THEN
IOException
multiplying
tor
sysc
##ONG
lift
popping
##bot
VBScript
TD
Profiler
##ports
synchronously
nan
tester
population
tickets
FILES
theoretical
Eric
##just
phantom
uncomp
encoder
disas
##GestureRecognizer
WebDriver
NSNumber
costly
measurements
Wizard
##Sim
forEach
shifted
##identally
enjoy
SAX
mailbox
reserve
subdomains
Smith
Classic
Raw
##vy
##ucial
debian
##ashing
insist
skips
clutter
doctype
##FORE
##oproject
##Agent
RDS
##itation
RH
facil
getJSON
##zor
##rain
punct
##URI
webcam
issuing
comparable
##IDs
Commun
worrying
BLOB
s2
shipped
lean
wondered
Ve
Cop
##nn
granular
ade
##pared
OpenCL
circuit
constrained
##Right
descendant
##uzzy
OFF
eat
##Person
##uli
hardcode
Ev
Knockout
oc
rsync
wan
125
Orient
kendo
translating
Wat
Buttons
##phinx
pdb
RecyclerView
secs
Compat
chef
##bc
CURRENT
##oon
fabric
##jp
wired
##error
pragma
ambiguity
##Move
##scribe
##Span
aforementioned
Sin
Searching
ribbon
##DA
Conver
hashmap
RewriteRule
investigating
dns
WebSphere
sitemap
Scott
forgive
IPN
DataContract
TIMESTAMP
contracts
Asset
Yeah
GPL
winforms
##ulk
leader
German
arbitr
BEFORE
traces
Important
##A´t
##ostrop
Rename
callable
ridicul
meeting
Gtk
Martin
##dom
ly
Course
##Once
FO
booking
carriage
##xture
SSE
##7f
imper
seeking
ban
wso
NSURLConnection
PB
##alv
SIZE
##aneous
##quent
opinions
WebService
SNAP
##2010
hyphen
cycl
Strip
SWT
papers
sqlf
##STEM
phil
crack
##Validation
LogCat
##REE
ReSharper
forwards
##ti
Listener
XHR
traits
officially
agnostic
TE
##rench
##IRA
nvarchar
MATCH
##sphere
flight
datatables
##predict
detach
solely
restaur
reinstalled
##chant
##unday
##icular
designers
STRING
pitf
began
endless
##0000000
conceptual
##Depend
##zen
reduction
##GG
Sending
crucial
scrollbars
Presumably
pem
##Av
distributions
Expressions
tl
##ammer
absence
##Logic
usernames
Logger
##keeper
##bd
ga
##WE
substant
schemes
dial
regexes
##Drop
Dashboard
##Foundation
##move
##Resources
##istrano
Nuget
dyn
##Sum
tapped
firstly
approximate
measuring
blink
##break
Constructor
boun
onActivity
##FILE
##ANS
##pool
vhost
Compact
##run
interfere
##oj
Installation
Almost
inspecting
87
nex
INTER
unsupported
virtually
UID
Vagrant
LIBR
pp
behalf
Despite
##watch
existent
##Foo
UNI
GHC
SIM
PRIMARY
##isks
catches
##Pad
listView
##UILD
CAL
relay
##400
##Author
Packages
##frames
##ptom
##quee
UIAlert
##PUT
indirectly
Symfony2
##irectional
cable
extensively
programmatic
intents
replica
Nok
stress
improving
March
tes
tx
TT
##wiki
Portal
##Buttons
##Conf
Bin
pins
Architecture
university
subc
Authorize
DataFrame
foobar
##kg
plz
##course
Ask
##Contact
##hibernate
insecure
CouchDB
83
##Us
JIRA
installations
edittext
vulnerable
incorpor
Joe
##YTHON
##lining
treeview
incl
scanned
stepping
Extended
IIS7
Learning
crystal
##DLE
heads
recurring
WAS
LESS
IPv6
stories
James
ive
drawbacks
razor
##aadin
##acters
coder
##ambdas
brace
214
Vers
Wall
Calculate
toolchain
toward
viewWillAppear
firstname
sqlfiddle
djangoproject
DataTemplate
PDFs
replicated
redo
understands
emphasis
retina
diagnose
##Commerce
##TA
extracts
##aptcha
normalization
msc
tablets
classloader
##oDB
considerations
##logs
##azine
Mix
1s
Ker
##OOK
##avis
##Anim
usefull
##Nodes
MVC4
Om
vec
##rian
finishing
IDEs
albeit
91
MessageBox
Peter
##Extension
Raspberry
TB
wasted
permal
cutting
##Encoding
##uke
typescript
apples
forked
pal
delays
##AYS
imageshack
UWP
ctor
smarter
yum
##bara
simultaneous
atleast
Lic
##SHOT
##rails
sharp
datatypes
Validator
subtree
Scheduler
##rogate
i386
11g
fitting
apostrop
overly
##Lists
Aspect
dropdowns
WebKit
Invoice
arbitrarily
UpdatePanel
surv
med
##marsh
Orders
continuation
cancell
##Sdk
bounded
INotifyPropertyChanged
supers
incon
premature
##yg
taxonomy
beat
PYTHON
##ECK
##oul
VERY
##Two
Hide
Intellij
Welcome
accommodate
aid
bringing
obtaining
beneath
Biz
thoroughly
SNAPSHOT
0x1
Callback
ESB
collapsed
pygame
French
Categories
junk
##Parameters
MP3
discrete
##oused
crawler
bag
unpredict
IIRC
RVM
mad
highlights
overwrites
Purch
pools
corporate
##apanese
Sequence
##ette
Moving
Tensor
Steps
zones
amongst
IBAction
onPostExecute
AA
##Front
mmap
##ulative
Scene
redefine
disables
programmed
inherently
diagonal
##Reduce
JPG
Optional
##ClassLoader
fant
unresolved
##TPUT
105
pypi
robots
recipes
Workflow
jet
sniff
fingerprint
Features
rebuilding
Automation
symmetric
resem
cancelled
##Iterator
HM
##Definition
##Vector
inspection
MPM
elev
ยง
##Head
median
permutation
bud
efforts
DOES
##oped
snapshots
Tur
##Scale
ES6
##aid
##room
admins
##ALLY
ASPX
##elling
Preference
STS
wso2
latin
100px
briefly
Ah
Creator
Nevertheless
##FL
inver
##Users
collabor
655
webView
raising
valgrind
science
##oices
footprint
Composite
singular
##roc
000000
websockets
IPC
Da
yy
cleanest
Fortunately
drill
exited
L1
borrow
procedural
Aud
memo
Startup
MI
##resco
specialization
VS2013
Inherit
webpages
angles
OPE
##ife
partner
encounters
##Cert
##Price
asmx
##abi
penalty
Want
purchases
mongoose
Wild
usability
##pan
numberOf
##yan
valued
AOP
bob
##nc
##days
28v
kafka
##ybara
HTC
Posts
dealt
sold
##iration
rpm
##CON
drawRect
theres
prerequis
##ena
Several
##TeX
##oshop
ah
belie
Beautiful
spit
##Lab
Aside
FW
b2
ven
rectangular
##services
bod
Cells
Nested
recieve
##ila
animal
F12
Face
ft
Mathem
##XT
Constraint
##Pri
nd
doInBackground
USE
circumvent
FULL
hdfs
##nes
##Completed
##Day
Toast
bundler
bs
Alpha
##IGN
sock
##Success
##oz
transferring
interrupts
OUTPUT
##CA
fiddler
##Lines
publication
140
Dll
msbuild
facts
forbidden
303
analyse
ital
##Sync
VirtualBox
epis
stale
recognizes
hadn
keychain
##json
exceeded
Great
expectation
wasting
##ocations
Executor
multiline
unregister
Updating
TW
pig
decouple
##Behavior
##paper
numbered
Fre
tempt
dart
##specified
fgets
##arks
##Multi
##Send
Prop
Arabic
##tn
ExtJS
exhaust
resizes
##alvik
sufficiently
illustrates
##hat
iterable
Specific
ages
recreating
Complex
Rules
replay
Series
1970
##Internal
spelling
##ancial
##Cap
URIs
Central
contribute
Hidden
paused
aliasing
##Struct
swapped
totals
HBase
ou
##rokes
depart
moder
FIR
Transl
10px
Pending
Requests
EXISTS
py2
subscribed
##erver
HOST
##guments
wonderful
Apologies
exclusively
ported
aver
prohib
iPod
Grunt
gear
completing
restful
330
objc
legitimate
binder
ViewState
lengthy
##HashMap
IBOutlet
Fabric
jdk1
FLAG
x00
##dr
T4
P1
symptom
##ami
UNIQUE
mixin
user1
ash
##888
ResultSet
traversing
Photoshop
Mr
Logic
##Strip
subtraction
##InstanceState
spect
IE11
##ISAM
##3333
uninstalling
##EventArgs
lg
facilities
HW
COLUM
Strict
Handling
##eer
upcoming
Snipp
Nav
HQL
INSTALL
expiry
##Git
tired
god
getline
Elasticsearch
manufacturer
lucene
recur
MON
paying
orm
##aintext
Previous
##TableView
awful
##oof
##rif
Accounts
Land
XIB
interpreting
sadly
changeset
Hel
sprintf
Workbench
bog
pas
##abytes
ArrayAdapter
ranking
compass
gol
additions
Paint
f2
consequence
uncaught
Connector
Fun
##scanf
Dart
validators
CVS
Ma
##Alchemy
##Images
aug
zoo
routed
addEventListener
aux
##Schema
tb
##Ac
##eray
buf
##PLIC
##Networking
Javadoc
tabl
uploader
sensors
##pdf
Ill
onm
Persistence
##acer
##BarButton
PG
##ublish
##window
NFC
##´s
Mong
Phantom
Timeout
renew
##Mess
ups
lear
##Att
555
##iy
Absolute
fat
wins
Thought
##loop
Surely
nom
sane
Prototype
dollar
c2
recycle
Resh
LIST
Tri
##fresco
infinity
licensing
setContentView
##amily
leaking
Caching
##ockets
collaps
interm
Room
SYSTEM
##aiting
1500
##Submit
popped
decoder
manipulated
##dy
proven
optimisation
FileSystem
Force
templated
AUTO
##mine
##recogn
##GET
prog
##Float
setOn
ndk
##AE
##Zip
flows
witch
industry
##ETIME
posit
Continue
Registration
GD
##iveness
eth
greatest
HelloWorld
maximize
DotNet
##Own
lst
hooked
DATAB
punctuation
Sent
recom
##uple
##rift
ipython
ItemsSource
##uilt
##estures
##irl
conventional
jersey
##UTE
LOAD
variance
demonstration
##ola
rooted
iOS7
doubts
Liferay
col1
Servers
640
pet
##tree
cloudf
Too
experiments
diss
repetition
occupy
RMI
tens
##fly
##jar
oauth2
verifying
##ancing
ServiceStack
CONF
Latin
Hub
inbound
##GridView
SIP
interacts
pricing
paginate
Apri
C3
outbound
jqueryui
Xaml
trained
##lee
##abber
todo
volumes
administrative
##ikit
##printf
dn
##oper
PyQt
##Descriptor
adequ
UL
CALL
guessed
Browse
unnecessarily
candidates
addr
Table1
algebra
Exact
statist
fundamentally
##uel
WebAPI
##rill
##osop
subscribers
iso
Implementing
##urations
dialect
ships
WebClient
ingredient
##mi
uuid
afford
TF
fif
##ikes
Counter
##USE
linkage
##ayers
##Information
tbody
blobs
electron
forwarded
Dream
Patterns
##mo
##chart
meaningless
##losure
##OK
##iph
importance
Roll
tagging
Sharp
cdn
##Board
##mented
cucumber
##Word
Comparable
##x2
Robot
##TE
##Program
##OSE
pertain
Namespace
Pascal
##fers
deselect
Stock
Pet
Capture
HP
Department
tinyp
exploring
plaintext
##aws
##Sy
codebehind
PF
unsuccessful
Dojo
zeroes
deeply
##input
zlib
##ARD
BU
##Pressed
Archive
Twilio
Prompt
lect
POI
resx
Timestamp
Dont
Texture
Alright
phpinfo
##Identity
Pull
##Binder
##ipment
onwards
OCR
GO
Criteria
analyzing
##yll
##adem
##Protocol
designated
YUI
percentages
##a€¦
Visible
Scale
enlight
offering
eight
Automatic
Permissions
multiplied
shifts
invite
##essor
##Sched
Bear
cursors
desper
2C
deque
LF
Datab
subqueries
beginners
##ooter
law
coefficients
ast
correctness
lately
##opard
textual
Routing
##sock
parallelism
EVER
authenticating
lexical
contrad
Versions
Asynchronous
precompiled
TextField
##Step
Fac
##folder
falling
Deleg
BackgroundWorker
LIBRARY
protobuf
Interestingly
Matt
CDATA
couldnt
b1
logon
##note
##iw
##oh
backgrounds
lambdas
thick
##books
Streaming
bounce
##istance
Sources
##ucible
Forg
nowadays
Appre
alphabetical
##num
##Place
##ceptions
son
gate
Definition
##ship
##idia
##otic
defe
defect
##Created
##stash
hacked
dup
Enabled
##weaver
CHECK
arduino
attend
gold
vba
sticking
##ein
gun
Inspect
backt
stem
workstation
##Trigger
salary
monkey
Bing
AFNetworking
Codeigniter
merc
Compute
Focus
navigates
designs
blogg
##ibilities
primefaces
##sv
##════
##aaaa
##adic
alright
initialisation
Phys
whereby
Queries
conceptually
##Preference
Tell
Scan
1111
Resharper
Ans
howto
sublime
##attr
kills
motiv
##ological
recognise
##ANG
TortoiseSVN
CAP
lxml
##beros
June
partly
u00
BLE
unpredictable
fp
TinyMCE
EAR
wildcards
FrameLayout
Mv
##The
mitig
subnet
Messaging
ML
exhib
##through
Finder
Guava
Rh
destroying
April
myfile
130
##OutOf
dram
BIN
##sum
geolocation
reconstruct
Cur
encapsulated
overflows
haskell
##emple
##MIN
Quant
DTD
##lc
INC
zoomed
##Guide
##aussian
Low
semantically
ActivityThread
##call
justify
havent
Qual
Couldn
Tabs
intentionally
unbind
reducer
amd
evenly
##ForKey
##KS
encrypting
scientific
communicates
redux
##redicate
statuses
##ankly
Dir
Blend
dialogue
cheat
violate
132
inlined
boils
Cookies
lesson
CXF
rfc
MyISAM
Fi
rvalue
interfer
considerably
indefinitely
Clang
##Asset
Clients
Large
wc
Programs
Maximum
WebApi
tinypic
webhook
##chool
y1
Chat
##astore
bases
##esis
##ango
Titanium
cold
methodology
tightly
implied
##atas
gitlab
Music
##igo
WebForms
arranged
##Remote
Finish
devel
portability
240
##Accessor
rethink
inex
##img
enclose
RAI
##mce
quota
Instagram
RoR
Instruments
IMAP
nix
Xmx
Europe
AG
##eclared
##itivity
Destination
Sorted
deliber
Prepared
midnight
handful
##Interceptor
##b2
echoing
##Bug
Notifications
Castle
Leg
subsets
##3c
iam
##ApplicationContext
alphabetically
##Term
brush
##Deploy
##Auto
contour
GR
Symbol
supplying
Hmm
JSR
##Stuff
##Non
subtype
Pdf
inputted
SA
##the
##items
fear
##leased
devs
##After
##achable
##aphael
##keys
White
CKEditor
mkdir
felt
redesign
onDestroy
ENTER
##obutton
##ROP
college
unfortun
Ultimate
##ervice
hr
##aware
Extra
##umerator
inference
evidence
solver
##Excel
blend
##oly
Amount
Blo
resc
##bean
EDT
Dependencies
fuzzy
commerce
deployments
functor
##ertools
tomorrow
door
unbound
Track
curios
plural
##Mask
joy
ORA
myst
tty
authority
##PY
Continu
WARNING
456
Others
malformed
112
quiet
partials
##isc
##Mb
tall
##ucers
##Qube
##Windows
page1
considers
##phones
##parent
Sat
dw
NOW
##agation
wireless
unint
Lookup
##a0
##implement
##yped
Shop
pitch
headless
badge
WP7
glitch
Span
##eeded
communications
rew
RDD
##outines
##Activ
virus
ClassLoader
TM
UserName
jpa
##PickerController
dice
sanitize
dream
##adow
##IDDLE
##ickr
Anonymous
c3
Devices
PCL
0001
submodules
264
##fusion
CDI
SelectedItem
##eners
##ipheral
Suite
##Talk
jr
mocked
##Fix
0f
slows
maintainability
Round
##prite
bre
lvalue
##oleans
regenerate
hes
factories
opensource
##term
##Ids
Amer
##ombie
proposal
bump
instanceof
speeds
ANTLR
fixtures
##shift
##anford
passenger
Locale
SQLAlchemy
Storing
Solaris
interprets
##olo
upwards
##wrap
##Cop
Jasper
##asic
substrings
Metadata
curves
philosop
##Logger
##fiddle
##DateFormat
rebuilt
##Sample
sph
NPE
##512
##otation
pickle
##ekyll
Hierarch
Pub
albums
surprisingly
approval
Textbox
##endor
##ests
customizing
rh
##ermark
Certain
Safe
heat
##urname
##RES
bodies
accessors
BEGIN
Available
sln
SPA
doSomething
gur
inclusive
##Axis
didSelect
Scope
Everytime
##Charm
##Art
##ermost
##Pos
##EG
calib
Ps
preserving
prototypes
##reference
##Segue
PH
supposedly
##espective
scoping
roots
cum
Hit
Enumerable
wherein
advisable
##builder
M2
Mut
refuses
##values
##oft
TI
##atly
nexus
##Pair
##Execution
rw
yii
unrel
LOT
##request
Sites
OPTIONS
OPEN
##Full
Customers
Sci
proto
postfix
weekly
##Dispatcher
Blocks
ee
jasper
ignor
##Look
Comparator
dow
AspNet
modifiers
arrived
768
##lf4j
favicon
frequencies
stars
errno
Wireshark
nons
transmission
registr
ActiveMQ
Mot
##2005
SonarQube
##Slider
##010
Existing
corp
bots
walking
##orrect
outputted
subtracting
periodic
Condition
HTH
fadeIn
zsh
##FileName
terminator
Multip
hbase
sev
tink
##talk
##urable
neglig
I´m
##git
convinced
PKCS
holes
readme
decreasing
compr
##urface
ClickOnce
inspired
onActivityResult
demonstrated
minimized
Numbers
system32
BigDecimal
PHPUnit
##brains
##XXX
kicks
keydown
cas
##ationship
microphone
ef
##IFT
##leave
telerik
Clone
weighted
EntityFramework
misses
Interfaces
##99999999
restoring
resolver
actionscript
mature
Specify
billion
selectable
Tempor
DATABASE
Upgrade
GLS
underline
RDF
invert
##128
Steve
FIRST
VCS
##ariance
##ancer
persisting
nutshell
Composer
Linker
Bey
##Assembly
Self
neighbor
##han
heres
##dt
rotates
Vertical
MapReduce
LaTeX
##VS
decorate
##Drawable
overlooking
avatar
addons
subreport
##Demo
##udging
LS
##rit
WiX
##loquent
convol
plotted
##Switch
parties
fading
##trusive
##rv
##Berry
BUILD
##tran
##Soup
confidence
##Contents
##Launching
ons
Jeff
Hint
TP
overlaps
##Resp
lon
gestures
##gon
envelope
RTF
gps
interchange
seven
##LM
##Methods
Encrypt
E2
javascripts
Provide
firmware
##wp
oldest
IDENTITY
satisfies
##Construct
##otime
aswell
##WARE
delph
##DR
##lp
PyCharm
DDD
##keditor
##Vert
refused
##python
escapes
1D
QUE
rock
Sphinx
##e0
combines
millisecond
enhanced
BR
Hudson
Week
##reat
onStart
##bus
benchmarks
##onrails
consequences
transfers
Ui
cocoa
dependant
##Ware
accelerometer
gam
V1
X11
##mask
##grading
trail
Explan
##Begin
addClass
powers
downgrade
##Errors
Japanese
##Mailer
tabular
FirstName
flushed
Fault
9999
MA
coco
budget
Transactional
##recognized
Confirm
##ergy
Accessing
##hift
approaching
##ropy
spinning
##ITION
##atics
Recurs
bookmarks
spawned
Apt
inbuilt
barrier
infinitely
Uninstall
##ANGE
ipa
##acci
headings
##XY
##aser
##Region
##Preview
Wifi
##max
##hop
itertools
synced
fantastic
fades
kl
emitted
slick
Paper
tapping
##pec
redeploy
Coffee
classname
Behavior
Ideas
descendants
multicast
standardized
Actor
jsonp
enforced
freeing
Age
flavor
cow
JSONObject
##Checked
peek
yo
farm
Spreadsheet
lastname
##hoto
unspecified
ViewModels
Transport
suspicious
fx
##TO
Receive
Conceptual
sphinx
##ertain
automag
CGRect
##5c
MyProject
Beyond
achive
predictable
Toolbar
##qt
Parsing
synthesize
separators
orth
elevated
##izz
Ber
beneficial
##rans
bmp
##Wait
##ury
unexpectedly
Inheritance
paintComponent
##uate
computes
slf4j
indexer
complaint
voc
Social
A3
F1
AUTH
camer
##WAYS
sth
##IAL
##DX
##Uri
tryed
Presentation
Pixel
CRC
CONN
transforming
##Equal
##utors
confuses
cheaper
subjective
lexer
##Editing
##Car
foll
##letter
tinymce
unob
##ruary
Ole
cascading
glibc
value1
tray
Forward
iron
##esser
overlooked
lever
Macro
exploit
Gn
ViewGroup
##Ph
atm
retaining
pitfalls
##ea
hyperlinks
referrer
##inates
unreliable
HttpWebRequest
Sal
1200
subjects
sooner
##TK
Impl
##method
##Mob
reveals
Circle
disks
100000
shim
mywebsite
Sunday
enemy
##Watcher
multiples
dx
h3
primes
contrary
##Customer
RegExp
EDIT2
Crash
myproject
##OTH
Dispatch
Unexpected
EXCEPT
IPv4
transpose
unaware
expectations
ABI
##guide
curiosity
Anaconda
DBA
Disk
observing
Annotation
EXPL
##ato
##History
realistic
syncing
##Columns
##gun
DOCT
DM
Operating
BlackBerry
Converting
Limit
reviewed
frm
Incre
ALWAYS
Hex
tho
NSFetch
##serial
transmitted
SASS
##ander
phases
hashcode
Catch
headaches
##ClassName
Measure
radiobutton
jade
UAC
##0000000000000000
##Double
shallow
##x10
className
##Fish
Skype
##Office
Sqlite
NSOperation
cents
##Indicator
##ANT
##ham
databinding
ideone
##upt
##rapping
##Widgets
##ystems
##Win
toy
clipping
cols
RIGHT
##oxy
##Insert
##tions
##Make
v8
wrongly
##number
##3f
reformat
##elog
summ
violates
woocommerce
illustration
sport
Detect
locals
2048
##ruit
##oking
Medi
ggplot2
getText
rubyonrails
onTouch
webbrowser
##FinishLaunching
filepath
pyc
Records
##PostBack
SFTP
anon
getInstance
recordset
carried
intermitt
dated
prevented
Migration
##SdkVersion
explanatory
PORT
##adding
predicates
RuntimeException
LINK
20px
inet
conclude
grays
DH
amend
palette
##OPT
irrespective
Cmd
assemble
Proc
watched
Stage
##ArgumentException
Wow
##Batch
disag
remind
##ooser
Er
SPAR
104
Occ
sink
spir
WebGL
##casts
SCH
mailer
jmeter
##uemix
QUERY
##ini
Diagnostics
GP
titled
Processor
Quote
172
inconven
fut
##IFI
strtotime
propagation
##mat
runat
cropped
deck
burn
Daniel
Umbraco
deve
##izr
forgetting
dumped
MC
##ipper
workload
chromium
##agues
STATE
##unky
##uplot
denote
ln
noticing
WinRT
##Phone
v5
##cember
chained
##ogiri
supervisor
##uffers
##bum
Problems
Coding
Repe
##Month
WHEN
SHOW
Preferably
redundancy
Akka
Sheet1
kw
##Pages
UserID
##BO
##YG
##ssql
pump
2GB
pinch
##Before
ratings
blackberry
ampers
hashtable
LG
ivar
##Ver
thankful
##Plot
Fin
##Pattern
##OUT
unz
DOCTYPE
repetitive
##Lite
##isations
accent
Updates
workbench
financial
FPS
Originally
wit
103
advertise
eax
IPython
DV
Consumer
PIL
var1
Mule
##swers
cance
suspend
wchar
##chard
Hardware
jail
warehouse
AVAudio
SCM
##Attrib
Hum
AlertDialog
00000000
##Texture
haml
DPI
##pg
Tcl
##Go
##Strings
Nullable
Overview
##500
resultant
Nov
NullReference
##lint
exponential
##olt
123456
##Templates
##ctors
starters
reassign
##phan
Prem
Autoc
traceback
##ousedown
itunes
Msg
negligible
avg
unmarsh
ISP
Mini
NSText
vision
##org
autog
##Works
Loaded
ckeditor
appc
##UTION
##umblr
appointment
recognizer
inapp
##ciation
Reduce
omn
Iterate
##ornado
FUN
flawlessly
##urb
WriteLine
##wing
fps
fiddling
Markdown
recipients
informed
DATETIME
plugged
actionbar
cam
##HashCode
Explanation
##TER
Solutions
##ppers
messes
DF
Dock
2001
##event
slices
pressure
ont
##addr
multit
rearrange
##arc
Workspace
AX
typos
Alloc
Quoting
dumping
singletons
page2
reloadData
lng
##oi
##erge
##groups
##blog
copyright
##Constraint
##II
trash
##regate
coinc
readline
llvm
academ
mant
##haus
##Fail
living
July
denormal
##urred
DEV
dive
INPUT
Marc
LINE
Checkbox
shortened
audience
classify
ASC
delphi
##Tip
Credit
quarter
reflects
##Close
tooltips
Scheduled
AAA
##pare
Lab
Programm
acquired
homebrew
himself
Que
##ror
tidy
EB
lifer
suspended
##Dict
##Management
BSD
endings
##ffees
##inated
discusses
dequeue
Stat
compliance
leap
##ypher
presenter
V3
##level
##phony
Garbage
struggle
materials
nightly
##Nib
prett
DP
lesser
##Import
##Metadata
##ognito
kernels
##mem
iterated
##arre
Ray
##Console
continually
diagnostic
##handler
anticip
##CastException
DynamoDB
BIT
##rogram
advices
Spinner
Observer
##RTC
p4
fee
minify
gradients
##ATCH
db2
cuts
##VED
ellipse
frozen
Segment
QML
##pos
energy
famous
NSTimer
intrinsic
##celerator
mocks
UITabBarController
PER
MEF
##Creator
##holder
##amiliar
Newton
multim
##Drag
handed
aggregated
clash
OL
eh
dashes
##ittedly
Metro
CONCAT
Sinatra
liferay
PASS
beac
Sessions
lm
##Mo
booleans
Oriented
Aptana
REPLACE
JMX
intermedi
KML
Promise
Speech
##Overlay
particle
fixture
##ura
whom
glo
##berg
nuts
concent
##Components
annoy
syntactically
##b0
Quite
une
flawed
Backup
osx
gains
##This
unreadable
##Children
##TagName
beware
Saving
Tkinter
##pret
workflows
ache
qualify
FWIW
##esseract
getData
Appreciate
Dave
errone
armv7
Speed
SaveChanges
shadows
Cost
WebApp
getName
##768
surrounded
rd
Converter
moz
JARs
convoluted
BET
Bound
ADB
Winforms
destructors
quadr
##udes
4096
##zed
imperative
deviation
Explicit
Conditional
Fedora
##times
similiar
whitespaces
##Observer
mercurial
xhr
##gems
MyObject
statistical
compareTo
Happy
overlays
CONFIG
dataTable
complicate
proguard
##ouses
Leave
##ostream
Everyone
Generated
phrases
Zoom
##style
reminder
heck
FE
meters
Afterwards
csrf
Generator
##VENT
Tile
watermark
swe
Deleting
tear
Logs
strcpy
Caused
SERVICE
Reverse
indic
pwd
UIAlertView
##ffeescript
pb
##irms
consolid
UserId
jackson
Browsers
pear
Chromium
professor
certs
gover
QGraphics
##new
Ra
improper
JP
dereferencing
Ax
##ala
##Design
ipt
##isan
##ufficient
rerun
##hh
##GN
ty
Distribution
PART
##stra
queryset
##Total
onDraw
hbm
##ropri
fragmentation
journal
##URN
MACH
lazily
IntPtr
edmx
Nor
cherry
blanks
halt
decrypted
dataType
##LLocation
Between
scrapy
##lev
##abul
MR
SOA
getResource
enlighten
gd
guesses
decompress
facilitate
paired
resizable
200px
centering
getString
popups
XLS
Digital
Passenger
Var
##ometric
ECMAScript
simulated
Worklight
Toggle
invocations
##ResultsController
indented
Approach
Inline
extensible
ops
eps
mapreduce
##uous
negot
##GS
9000
##ilog
JSTL
powered
JButton
Lots
##can
r2
TryParse
viewstate
GCD
BufferedReader
##Strategy
examining
##v2
##Track
puppet
##imeo
quickstart
gathered
sanity
##filter
##editable
Q1
autow
##Extensions
##ih
##Ge
EXPLAIN
##avor
DEF
##init
grayscale
JF
remark
##ICK
Meanwhile
derives
psql
Topic
##olf
caveats
assoc
##HttpBinding
ghost
##onfig
##Loading
##design
##orem
##NK
OpenMP
estimated
succesfully
sett
slicing
preceded
jetbrains
tabbed
##scription
SimpleDateFormat
Vehicle
cameras
Bund
RSpec
Styles
insane
##cm
interoper
reactive
tabbar
TRI
reproducible
##omic
S2
##Popup
carrier
taskbar
OBJECT
##storage
creative
constrain
##Enum
##erec
smartphone
Hon
##itionally
prototyp
##accur
SVM
screenc
Snippet
##cart
upv
##Arch
acknowledge
Purchase
unstable
VLC
wip
##Ready
UX
ml
pretend
heuristic
MSMQ
season
##organ
Wouldn
tld
Sandbox
##MapView
exemple
hovers
Downloads
nearby
pert
Andrew
##Points
Phil
Pic
##b1
##Cookie
Books
960
##Sense
##context
BizTalk
BigInteger
##Rate
liqu
Wed
Operator
preparing
Fusion
BeautifulSoup
##seconds
ttf
Z0
spider
##5f
Mc
lol
printable
mongod
LEN
AMI
Ribbon
##arithm
##athan
ClassA
February
##c0
##kin
Scripting
##color
##Extra
Trust
Manually
IDLE
col2
denotes
Sets
##3a
xxxxx
qty
##FB
PublicKey
##omas
##ventory
EXC
##ImageView
LED
##Sets
##special
VS2015
xdebug
aborted
##Flags
Finding
##Received
##ruction
spreadsheets
odbc
##address
unsub
invoices
criter
Bytes
chron
FP
Pure
valueOf
spy
sleeping
##Year
##600
##GIS
serverside
eliminating
vulnerability
y2
Few
enqueue
listings
##Exceptions
Determ
modulus
hacker
testers
ble
birthday
Nodes
JavaDoc
DatePicker
SelectedIndex
rf
##dump
geom
##source
Thx
cope
ii
Imp
##Mac
userID
##Return
judge
frustrated
##ober
A4
slo
##upy
##Mill
jst
automagically
Overall
##EC
fileName
excessive
identification
##Plus
MVP
interpolate
350
##outs
grained
optimise
##cean
collects
continued
simplifies
Ghost
indirection
slowing
0s
subsystem
LAST
cronjob
USA
##Quest
preprocessing
Diff
obfuscated
ItemsControl
##crumb
PYTHONPATH
##TextView
qualifier
overriden
cu
Assemb
2004
libxml
Translate
##aaS
j2
##itute
##ega
SPI
compens
nec
jni
unfamiliar
##emark
Period
SSD
disagree
splice
announce
##apps
Signature
##robat
libst
UPDATED
Ske
securely
dataSource
##DUCT
Middle
CN
hung
readily
stmt
Tele
##igible
Connections
Identifier
Desc
npmjs
D2
Joda
msvc
##ussian
inaccur
responder
Systems
hel
FIFO
Assets
nick
##anguages
wk
##Bro
##utch
backspace
RUN
##storm
surrogate
addin
Prism
adjustments
classical
javafx
##Counter
myApp
##Tests
manipulations
##Delete
reloc
##ket
##110
Keeping
##XP
Places
Plug
focusing
agreement
Numeric
utilizes
rapidly
##Drive
subclassed
decorated
viewDidAppear
##Meta
discouraged
Integrated
moot
finder
stripping
querySelector
abcd
Means
NullReferenceException
refine
##Other
Square
PhantomJS
##Sn
Bonus
confirms
##e6
superuser
integrates
##fun
##Ed
refactored
System32
##BA
growth
mysqldump
brev
##rick
unresp
stretched
Commands
Databases
Mathematica
VPC
swagger
OpenJ
LinkedIn
##Canvas
lite
hooking
##DIR
tweaks
develo
##ctask
122
unusable
WYS
untr
Editing
ETL
##GA
reshape
r1
feeding
ACK
Blackberry
##Named
ddl
ARR
practise
missp
speaker
OnClickListener
whoever
Flat
Skip
ration
##DY
occuring
rpc
NUM
F2
ADFS
ico
MACHINE
pdo
##front
restaurant
License
##Sequence
revealed
ridiculous
dismissed
Points
##buf
##ordinate
winform
loosely
##awning
skew
Communication
tamper
brevity
Slider
##OULD
CLLocation
navigationController
##iot
testable
architectural
textfields
Definitely
##chest
licenses
taught
##emes
Clou
##ayed
awhile
enl
##HTTPRequest
##pend
Josh
erased
holid
##BL
##0101
Wrapper
informative
AWT
Sch
GetHashCode
inferred
##Completion
##ppable
Mi
##upyter
Four
autocomple
##Print
##aze
stateful
UISearch
##oker
occupied
modem
myArray
pythonic
phpunit
##Dao
SOUR
retains
##sequently
OnClick
TRANS
##Maps
appspot
assess
Retrieve
uncompressed
EclipseLink
Blocking
GlassFish
adequate
##Camera
exch
##R2
Paths
NPM
December
DROP
Dem
cnf
Lot
Alternately
centralized
##234
DU
##Example
eliminated
taste
PAGE
stead
il
##plorer
States
executions
rust
##chars
misc
##Lint
V8
erlang
##v4
dex
ciph
##loading
storyboards
Hosting
gb
SOURCE
blade
karma
##We
##module
inverted
Christ
##READ
##Side
##Messages
##a4
##300
##Cons
Writer
WebSockets
favourite
opener
convince
RichTextBox
Priority
generalized
staying
cfm
codex
wether
onmouse
gm
##istant
##lassian
savings
Casc
Css
derivative
##casting
##b4
invariant
plunker
craft
fing
deduce
horribly
learnt
Filters
AlarmManager
Seq
standpoint
blame
Plot
appender
##asonry
inherent
##ifactory
Been
compromise
definite
SurfaceView
bee
##UMENT
recognizing
##2f
DIVs
UPD
SYS
unfortunate
lisp
##QU
Leopard
vanish
mssql
Understanding
Mapper
productive
hoped
shiny
factorial
OCaml
successive
hij
##OrDefault
##Responder
searchable
##inating
##ToOne
udp
TY
##ecko
##encil
Adam
improves
fragile
##2012
reconfig
0x8
accomplishing
marketing
##iecl
##accessible
reviewing
cxf
abuse
##lists
a€¦
VCL
risks
tk
upgrades
Utility
##center
TestNG
slim
collide
Floating
##ledged
##Ab
fk
##quir
nhibernate
Jack
hw
##hash
##atim
getUser
##erces
AutoComplete
premise
caps
coords
##RY
spits
FD
##OperationException
unrecognized
##El
Launcher
##section
retro
logarithm
scm
UIImagePickerController
fractional
wireshark
cumulative
hun
rabbitmq
rou
unresponsive
##rived
APC
quickest
##feed
beaut
IA´
##enus
Appl
pods
locales
permalink
seperated
EV
everyday
RF
n2
##atell
COLUMN
##estly
Collect
NoClass
eliminates
##BarButtonItem
va
##e4
##dera
fighting
##Tasks
Beware
ServiceModel
Credentials
##eting
##Series
utilization
Compatibility
divis
screwed
##etheless
unselect
PCI
##lyn
Soft
##Keyboard
##OUND
wording
tfs
getClass
Stripe
##xygen
##uits
untouch
Twig
WSGI
discussing
ordinal
codehaus
DataTables
##bal
##node
Reflector
unitt
disreg
Kinect
Tap
##losed
narrowed
Marker
##iction
##uer
##pa
North
MapView
form1
worthwhile
DOWN
freedom
##cape
333
##b6
##EP
aiming
Vertex
WYSIW
gov
##reader
RIA
Sockets
Suggestions
textBox
backtrace
locator
Somewhere
jack
teaching
rewrites
giant
polyfill
somed
Isol
CURLOPT
sliders
##AMPLE
yarn
instantiates
ViewBag
faulty
##Cross
entropy
##Books
##Monitor
value2
stab
discr
oblig
##tling
colleagues
##d0
supplier
crt
jqgrid
Removed
COPY
##Rad
lighter
PCs
recycler
PropertyChanged
Webkit
echoed
xCode
##EF
neighbors
##ramid
hotel
MST
voted
##ened
##adocs
spare
Chef
##Visual
Marshal
stdlib
##EXP
##una
##urses
Snow
PROJECT
PD
##quel
##111
sky
##hdpi
destruction
MPMovie
D1
##aho
rsa
##Setup
##ymotion
QP
ped
clunky
Form2
##company
bizarre
impress
ostream
PW
customizable
##beat
dramatically
IAM
##emale
ctx
Administration
Rhino
aggregates
west
##ban
Sorting
babel
SQLServer
NoClassDef
##argin
CLASSPATH
ELB
OUTER
##bel
getValue
Resolve
meth
##Toggle
##Capture
divisible
fieldset
coup
quartz
##mas
rework
unreachable
brightness
getItem
##Loaded
StackPanel
Poll
announ
##pager
##ads
emulators
treatment
##rm
approve
Difference
hdpi
Incidentally
bubbling
CPAN
##inja
logfile
##REMENT
Already
sqlserver
##LSE
stubs
netstat
##b9
Gson
COMP
SqlServer
##thed
FOO
contention
Haven
##idently
cust
v6
Endpoint
rubygems
Mostly
organisation
MAP
packing
french
4GB
##yer
numbering
reliability
##Direct
reimplement
##anners
welcom
masking
chr
PublicKeyToken
##wave
analyt
m1
TextViews
Polymer
mutate
Dynamics
convex
onCreateView
gnuplot
innodb
##plication
Oauth
logback
button1
SBT
idx
WRITE
golang
tcl
DES
filesize
##obj
Latest
deactivate
VH
loopback
cares
Generics
amazonaws
functionally
##elly
##aration
sha1
invalidated
dispatched
notifyDataSet
RAD
south
##Watch
select2
fadeOut
barely
octal
XmlSerializer
Ethernet
Tax
warm
##NCE
distort
##bet
masked
ROM
##chor
degr
STATUS
Increment
damage
##Cart
conditionals
Adjust
BufferedImage
merchant
shortly
RStudio
##Guard
relev
Redux
##uctions
denom
##LED
##exec
guideline
ellips
##Invocation
raspberry
JTextField
undesirable
ashx
##oration
##ubuntu
flagged
##999
##lihood
bidirectional
##iger
Dataset
Visit
rounds
Aggregate
6th
Clip
superior
##mn
enhancement
probable
Raven
Figure
NoClassDefFound
Partition
Walk
bins
promotion
toggling
accessory
defeats
##Comparer
strtok
BASE
Relevant
DX
LP
csharp
##antly
club
Recommend
getElementsByTagName
spoof
stdio
Combine
proportional
Cover
Adm
##Hint
expense
osgi
ACTIV
RCP
fread
satisfying
CNAME
##prof
downv
121
datacont
sucks
Relationship
academic
strangely
granularity
BIG
LC
##Dispatch
metac
##ilers
crude
TableLayout
autogener
centers
scikit
notices
embar
##venue
tang
boxing
Guice
inspiration
Schedule
dpi
Opening
Effective
Frid
##jk
ThreadPoolExecutor
Bank
##unload
1GB
decorators
Spanish
unac
Visibility
210
JLS
accomp
flickering
Est
maths
##VEL
lp
Among
confl
TimeSpan
emulation
insufficient
obfuscation
##g2
revised
CoffeeScript
ICS
simplistic
dan
tkinter
##lich
##iner
GetType
Arc
##umed
##ropriate
LAMP
fifth
Nove
WYSIWYG
mdf
variadic
##itively
##Installer
rain
theta
openid
##External
Cucumber
firstName
IronPython
Pin
untouched
CRL
##Temp
orphan
OutputStream
analogous
##OOKUP
##ANCE
Odd
beacon
POD
pix
moviecl
libstdc
Emp
##allocation
preset
Atomic
AutoMapper
##Arr
##b8
Arguments
chess
MonoTouch
iptables
Expect
spots
ect
passport
PT
CONTENT
Failure
Personal
sight
Enumer
Dropdown
##Feed
##allax
mule
##errit
uniq
Thinking
Vue
IMAGE
##mind
Table2
iostream
backticks
puzzled
##2e
##Master
Earth
contradict
lifting
rent
simulating
liking
Luckily
challenges
Conversion
BigQuery
##Scoped
suck
Provision
deliberately
RB
##CODE
retre
refuse
##po
Anim
##f0
obst
bz
##Fil
Patient
##lem
virtualization
Honestly
##ien
centos
licensed
redistrib
Param
ActionListener
Pandas
Bot
tradeoff
NSNotification
optimised
screencast
##Jo
uncommon
zipped
##viewer
##Native
##ondon
eigen
geocode
##package
IntentService
Organization
scp
peripheral
faults
spawning
hs
deserialized
precompile
positives
artisan
Plain
mouseout
8888
logstash
basket
Sept
clr
instagram
lod
twe
Logcat
Fancy
##WORD
MAIN
##chas
Adapt
##UDE
##vens
##Paint
expandable
##icion
replacements
masks
blueprint
VSTS
BACK
matcher
mousedown
##DOM
liber
SimpleXML
Street
##TI
drawables
ordinates
##DOUT
EP
SOME
NTL
Naturally
manageable
##a9
##ford
##Bu
Didn
cropping
nod
TAG
usec
XXXX
unm
uncertain
notifyDataSetChanged
##conf
Kerberos
proved
specificity
000000000
##result
##program
remembered
scrollTop
myster
hob
##EAR
##NO
FileStream
trac
Lite
Board
Q2
Children
##cmd
##Score
##ifty
SEL
##Effect
Wrong
Concurrency
ranging
##fil
Forum
illustrated
glue
##inci
##astically
##rawn
iOS6
CALayer
unesc
Transactions
reproduced
tasked
blacklist
progressbar
50px
accumulate
QUEST
LR
232
d1
prefetch
Including
##after
dense
LastName
ELSE
extjs
##Navig
Along
MU
##ERR
ICollection
Intellisense
##plusplus
distributing
joint
kin
ASI
MenuItem
Sud
stere
##func
rx
##learn
Weak
##listener
##ona
##Android
obfuscate
coin
Notify
intellij
particles
absent
unobtrusive
Fib
##det
vue
##aria
##Registry
Vaadin
coord
partitioned
Mockito
interfering
ViewData
nonsense
Subclass
##365
##BE
convolution
##elix
FIND
discrimin
##TextField
breadcrumb
##WithOptions
Lines
##NAL
archived
sourced
safest
##Propagation
##istically
Receiver
QUESTION
Jobs
Score
Answers
##interpret
SHIFT
enumerable
demonstrating
geocoding
York
##tracking
cabal
italic
##enn
CDT
analyzed
##DATA
##KA
##ntime
COMMIT
##A´s
NSFetched
MIT
Beanstalk
alex
cash
Faces
syslog
CRT
gv
WP8
##Reports
trivially
slaves
flushing
Highcharts
FAT
breeze
accounting
eligible
painted
affili
OrderBy
##BeanFactory
HAVING
Motion
referential
Sharing
##a8
Deserial
SOFT
welcomed
LTS
Vo
marketplace
FORMAT
##b3
din
##IndexPath
SHOULD
ObjC
Pipeline
##ement
ImageButton
UIPicker
summing
##zones
libcurl
DevExpress
Ha
syscall
ib
getCurrent
##lloworld
##Authent
##727
Pig
##vention
106
SOLUTION
jasmine
##rik
facade
QWidget
##esp
CodeP
Exactly
applicationContext
Sybase
layered
gradually
##OTE
Sand
coales
acceptance
##Redirect
##increment
##URLConnection
Kar
Vendor
shortcode
##Aw
conda
Inform
##Hook
magazine
Friday
stability
##BSD
unary
252
##scope
##DAO
benchmarking
Guess
phantomjs
Whilst
transformer
diam
Mount
720
Fit
magical
##Override
Pag
SID
Fonts
artific
##Ui
Autof
ai
responded
twisted
assure
OBJ
Sass
Za
##vile
##WORK
October
##Available
##Thing
nano
unmod
RadioButton
surname
THAT
UA
ongoing
field1
converters
Secret
deriving
multis
positional
Ep
##Photo
empt
HttpRequest
stl
2018
X509
##erecord
##drive
Weblogic
xargs
Imm
inaccessible
CQ
computational
S1
webforms
checkin
##auge
modelling
##f8
buying
transitive
likelihood
Woo
##ensus
##e9
##Sm
##otlin
crap
Drawer
IData
promoted
CLIENT
YOU
Sheets
##Transition
##Di
emits
Thumb
##cluded
conce
##arms
promote
##d8
##Register
##thedocs
nok
sendmail
TAR
##asso
##NLP
setValue
localize
enorm
mdpi
Tuple
DFS
##erlock
disposing
doFilter
readthedocs
##Help
shells
ot
baff
##Cle
versioned
10g
##quality
##686
##iauth
144
strips
Spy
owning
Times
topology
Lo
Formula
rootScope
ASS
inlining
##Subview
##Subviews
rescue
voting
##v1
ElasticSearch
SqlConnection
stripe
Rate
remoting
diagnostics
latex
108
##raction
RHEL
##Split
tint
##d4
##show
AppleScript
SqlCommand
NoClassDefFoundError
fort
Rebuild
substituted
##Groups
keystrokes
ej
1000000
considerable
Liter
##lare
##exe
gy
##aS
PEP
##celable
akka
MER
JRuby
ampersand
##expr
ScrollViewer
obe
##sect
HttpResponse
pinpoint
delim
amd64
fingers
sector
Star
##a6
lookbehind
lighting
pathname
thx
tooling
distro
ctypes
getTime
##indsor
apostrophe
hardcoding
workable
likewise
newsletter
AppCompat
##Chooser
dao
decreases
Compiling
cancellation
Dreamweaver
NTLM
##axon
##PRO
##eration
450
automating
##ika
challenging
##f2
##cpp
##AVE
##child
outlets
corpus
Selector
patching
##InterfaceOrientation
UB
##gent
Jim
experimented
exhausted
##Limit
user2
Closure
Tracking
Samples
ofcourse
entirety
##7c
handlebars
tolerance
##C1
flavors
toggles
Elect
##Tap
##proxy
lights
CAST
vocabul
plate
Taken
##ipop
Claim
Stick
21474
##WEEN
##oked
strcmp
si
ps1
urlencoded
FQL
##0001
segmented
trips
##ChangeListener
##rief
newb
ProgressBar
Instrument
##inations
EBS
RPM
##Namespace
outs
z0
blown
spaced
##b5
NEVER
##hens
transparently
##opping
##urance
STDOUT
Made
datal
ByteArray
Brian
pauses
STD
Embed
##izza
##Cmd
Hasht
##Culture
HttpPost
clueless
marshal
##Lng
caution
deserializing
Dij
##f4
##Msg
wwwroot
J2EE
spirit
Lead
excludes
Datastore
DST
peers
administrators
##ODE
Autow
reservation
urllib2
Restore
routers
reaction
omitting
parametri
Dump
Tick
EventArgs
BST
alike
boards
selling
Ter
delegated
directional
scaffolding
fusion
downloadable
##profile
jms
##iroment
cplusplus
Tcp
worksheets
REALLY
Reactive
LA
installers
trickier
polls
undeclared
ClassNotFoundException
304
warned
##inent
AVPlayer
Landscape
##Platform
Dro
##Shift
Temporary
MX
mutually
DON
##alchemy
124
##proc
Administr
exceptional
NC
##Use
cls
bullets
##types
##120
Exc
cooper
printers
gar
PrimeFaces
bbb
intelligent
discrep
Highlight
Pod
retrive
##uh
##Release
nr
NumPy
##ibana
winner
Esc
mex
unauthorized
222
adjustment
##emagick
namesp
754
devtools
##Bin
FM
Cron
animals
##Updates
philosophy
##ableView
##ASM
padded
##Credentials
##cached
##eps
##eclass
Acrobat
##LOAD
stacking
Voice
MPMoviePlayer
cardinal
unaccept
ET
HS
Codes
Wire
Toolbox
##Required
QString
surf
violating
Os
Goal
speedup
##e8
rotations
Portable
5s
##192
Practices
coloring
colorbox
genre
miles
##umpy
codecs
##liest
Concat
1280
paperclip
changelog
autolayout
LNK
##CAD
RESULT
Firewall
resorting
abandoned
htmlspecial
Automatically
Applet
animates
##ASK
IMG
South
##ourier
exclusion
Volume
##UV
NN
enumerated
symlinks
August
satisfactory
GLOB
gpu
BeginInvoke
##draw
unified
credits
##mma
Rendering
weekend
reclaim
Perf
Returning
deadlocks
Twisted
##ycling
gad
Orchard
Languages
##iating
##prising
propagated
googlecode
Fact
Indexed
NODE
ion
##jit
##prod
Err
onChange
##uv
##Exit
DL
Hook
RequireJS
dalvik
untill
DN
linkedin
MainPage
angular2
wallpaper
##pub
##atern
109
Homebrew
therefor
repr
trend
notably
restrictive
humans
##Permission
##apes
##AccessorImpl
abstractions
MOD
##lor
IRC
TSQL
##e1
##iations
Knowing
Nick
Signing
WWW
mdb
pec
##Refresh
Workbook
MDB
##calendar
shutting
adjacency
blindly
WF
establishing
writers
Raphael
Zone
##topic
##Employ
Ryan
tour
seamlessly
inclined
intermediary
##c1
##agged
FIX
Autocomplete
##Tim
burden
failover
navigated
##Basic
EVENT
##ivy
downstream
Configurations
##wares
Jboss
##aton
Ordered
Built
##dot
shame
Desired
SWIG
DOCUMENT
differing
E1
patched
Drawable
customise
gnome
##Company
smarty
telephone
ice
##PP
Ids
Splash
ActionResult
Reload
dk
115
##HOUT
dg
myClass
TTL
##Global
DNN
##valid
##OutOfBounds
cvs
inad
##Reset
PEAR
##ELD
##NUM
shelf
##Soft
crawling
##enuine
126
##Fore
appcompat
nio
EDITED
mouseleave
premium
clips
##Shape
Gridview
MDI
##copy
Jython
Sensor
death
##urrence
Pie
##element
correlated
playground
htmlspecialchars
##hicles
implode
##ROID
putty
##div
##reed
##imity
ancient
childs
##Fixed
##illion
##AMES
Markup
##onf
Strategy
nine
##mite
boxed
HMAC
duck
conforms
##tml
chains
appreci
##DOWS
ivy
SOFTWARE
##ANK
##2015
##bro
Issues
followers
Mechan
wil
prompting
permits
conforming
Navigator
Ren
mile
##320
SomeClass
1001
callers
Easiest
kubernetes
sails
structural
chapters
##mobile
##321
220
interactively
adopted
Unauthorized
Listview
##BLE
appe
cryptography
sac
stumb
HAVE
vib
mailt
Tutorials
vtable
##pn
##Such
##plib
##apods
warp
##abe
##Suite
CMakeLists
Worksheet
loosing
##abl
unloaded
CBC
AVC
prolog
Guys
suites
##you
204
##agle
simplification
timezones
standing
Princi
##Hidden
##whel
BETWEEN
Windsor
Incorrect
vulnerabilities
generalize
schedules
SqlClient
FUNCTION
##ribe
Clar
Profiles
occasions
setAttribute
nm
meter
coffeescript
FIELD
USD
observers
WINDOWS
tempted
asio
restricting
qmake
##Home
##Certificate
##f6
##iton
webform
##Super
libm
Wor
##plan
MemoryStream
Earlier
ActionLink
verbatim
123456789
##Encoder
San
2B
##charm
carries
TC
mes
FileNotFoundException
individuals
##Invalid
Maver
recorder
mixture
##AAAAAAAA
mouseenter
Smarty
ker
town
hourly
clums
abilities
Quantity
Seeing
MacBook
flaws
RP
##f1
AW
##Random
coher
clipped
grabbed
TabControl
OLEDB
Tor
Functional
Contain
Mongoose
VSTO
##Tracker
swiping
Robert
##ForResult
##iselect
photoshop
collapsing
##tly
##tpd
talked
##Wiki
Backend
##Interaction
funky
##DEF
##Any
MovieClip
##TY
##oen
##DataBound
##CGI
STA
backends
##font
instruments
Employees
##VOT
meanwhile
parens
setups
ditch
as3
quadratic
enumerator
Gecko
##IES
trie
134
##Environment
mort
##mailer
balls
clones
##inet
steal
trimmed
##c2
Monad
ForEach
privileged
recalculate
CUST
Internally
keytool
DDMS
Human
infos
bing
sad
##Theme
viewable
timings
polymer
##Recorder
wxPython
##d3
rationale
PyDev
bias
storm
##wsgi
gsub
##blocks
erroneous
imap
compromised
proving
walls
Salesforce
WebRTC
##Hibernate
mutation
##Mobile
Consequently
##Scheduler
begining
Zoo
magn
onStop
libgdx
Ca
##2013
NumberFormat
##bol
##Valve
##Principal
Apr
##Records
labs
POP
1900
myObject
##osemite
inev
Pair
dispatching
mitigate
##KEN
##rey
##Encode
Popen
Waiting
smo
equivalents
reordering
droppable
Breeze
drastically
Closed
Gaussian
lodash
deallocate
##lan
divider
departments
Uncheck
influ
##ZZ
##Merge
Wicket
sap
##c4
encodes
acheive
##EGER
rail
##world
orchest
attributed
xor
Pseud
##angled
requirejs
##ibase
ServletContext
##Ignore
##eping
WITHOUT
mems
##uliar
mn
flv
n1
PIC
##boxes
##Gb
detector
Deep
PA
noun
##ARCH
REM
EVERY
Encryption
Mach
Nice
##sof
libp
RAND
helloworld
AppEngine
Agile
##Marker
##owing
dirs
##StateException
sensitivity
overwhel
FORE
##AINT
0x7
##tor
##osis
NSView
Generation
##Presenter
##Machine
equipment
ACTIVITY
quantities
wi
##Utility
visualstudio
##Clicked
##VALID
Formatting
##focus
##iann
Charles
unlocked
protractor
typeahead
##Exchange
heaps
Firebird
struts2
recurse
##strings
FragmentActivity
BIOS
ba
argu
##viewcontroller
x0
beautif
compressing
opcode
productivity
##oxygen
readings
vbs
substantial
dile
##omen
separates
priorities
cubes
ClientID
tabBar
Executing
male
##agent
polyline
99999
monot
inflated
haz
##Choice
Switching
canceled
##okens
##647
finalize
WaitFor
1x
Dockerfile
##fields
##alm
Celery
km
selectively
1MB
sbin
Distance
2f
rat
##uesday
2002
Somebody
##Visibility
God
onLoad
##ificates
ESC
Ia€™
jn
##quire
proceeding
relevance
mailto
##Stud
Angular2
JTextArea
##enght
ellipsis
##bow
##Numbers
teh
reverted
ELF
##ycled
textfile
##Shared
recompiled
frankly
currentTime
##DataReader
##Products
ingredients
##lookup
##Amount
hero
oAuth
##master
Members
prepareFor
##ListItem
tweaked
Ham
##rows
Impro
disclosure
3306
##cer
##720
MonoDevelop
##acher
114
PROCESS
NFS
mxml
cryptographic
colons
Exam
##odo
Recogn
PreparedStatement
bothered
##High
clockwise
##Tex
resid
MKMapView
Leaf
genuine
##PER
ClassCastException
INTEGER
bundling
Optimization
encapsulates
decoration
usages
environmental
deadline
LayoutParams
east
contextual
spawns
reinventing
FT
hat
backtracking
Postgresql
blending
##kiq
##PR
classified
##Brush
Son
bird
##xing
##atype
estimates
netty
Coming
##Fire
##enses
COOK
Tip
qa
##Warning
Scrap
Minimum
##ya
Advant
d2
##LAGS
DTOs
##perf
deploys
Ticket
##Desc
cit
shoud
unlink
framebuffer
MP4
Mind
chunked
squash
##arwin
GridLayout
##Character
ARE
TLD
xxxxxxx
mother
disclaimer
CollectionView
DSN
Life
##Payment
##rog
gained
##Op
MED
wm
ObjectContext
arguably
##d6
userName
##vision
applicationDid
##onyms
10k
CloudFront
semicolons
Selecting
##Stamp
Resize
##comb
Guidelines
##Need
JScroll
Neg
exercises
5px
mg
##nx
##eterminate
episodes
##allet
unbox
probabilities
webroot
significance
german
certification
##agon
##Classes
dangling
tablename
Mor
R1
remedy
##MenuItem
##Lat
##Inject
datam
##Analy
TreeMap
Photos
donat
HDD
254
bottlenecks
Lin
jan
activerecord
Via
Mvvm
ARRAY
##ria
cowork
FOS
parameterless
mf
sucess
kil
##Coder
postal
Primefaces
##rical
verifies
##Pan
##Headers
##Drawer
peculiar
reindex
Websphere
##scr
keyed
##submit
##uptools
changesets
admob
wishes
suspicion
##QP
##itative
Forb
Pol
##isco
relax
cmdlet
protecting
clob
Average
odds
##Frames
locality
Unhandled
nevertheless
ANDROID
##itical
RDP
##range
thes
##connection
synchronizing
utm
##onse
RED
##Endpoint
Driven
Thomas
Theor
wear
north
freezing
datan
Jira
DataRow
halfway
##Membership
##d1
##exp
##Conc
RewriteCond
Sus
paged
##city
RTL
CPython
Escape
maze
procs
Pan
##vs
##filled
Alice
5x
Tech
jw
##Using
Kubernetes
Album
##ysql
SNMP
##Feature
##orator
somthing
##ATED
##ByName
toggled
Near
jun
##local
sqlalchemy
170
NSFetchedResultsController
##dict
##────
upside
sitecore
November
##prop
terminals
##abb
list1
NoSuch
##entaho
wiring
onItem
107
replaceAll
##writer
##Toolkit
INCREMENT
documenting
##ican
viewModel
ListActivity
##Infl
##v3
##Picture
##egan
XmlDocument
147
PIN
eventual
ReferenceError
PowerPoint
##ded
Hom
pose
GLSL
Capybara
dirname
squee
##apse
AppStore
Tk
relaunch
NUL
awake
LW
dislike
135
GRE
##iti
mixins
mutual
vocabulary
ties
vow
dept
Dijk
##itled
##ivirus
thumbs
UINavigationBar
##phrase
decompile
270
Proper
Replacing
covariance
weblogs
Completed
disappearing
pics
UD
##Layers
getAttribute
School
##label
##aik
RestKit
lint
ContentProvider
contentView
Compilation
macOS
LONG
Nope
##hz
##urday
orientations
Pros
TEMP
jQ
ModelState
purge
TARGET
squared
hyphens
calendars
SyntaxError
Authenticate
##UND
disapp
viewpager
normals
Failing
ctp
##idi
ClassB
mnt
##het
remembering
ACE
Currency
dst
ItemTemplate
##Popover
Apples
ContextMenu
subform
erasure
Distributed
##iB
hay
incase
translator
##upport
3x3
Song
beautifully
var2
ALS
Printer
CPP
Iphone
mul
wipe
##urch
##002
GPUs
Arial
subscribing
cmp
##ko
##ucent
venue
param1
WHY
##Toolbar
instrumentation
Outer
Autofac
p12
##Eval
##Summary
wkhtml
Relational
##COUNT
Interrupt
Eloquent
##CB
revis
downtime
cnt
##pe
autoreleased
fu
Doe
##dog
Constant
##boost
terrain
uint8
pink
shards
mongoDB
hesitate
recycled
TabBar
octet
WK
##bn
anyhow
Figured
Bluemix
##iview
akin
MERGE
UIControl
##ancies
Struts2
didSelectRowAtIndexPath
REQ
hammer
trig
UserProfile
finalizer
walkthrough
Attached
##media
Ping
##oto
1920
mystery
SCRIPT
RAW
Copying
ExecutorService
2147483
Indexes
registrations
clumsy
Wonder
##e3
unittest
proceeds
Provisioning
samsung
##tag
VMWare
Strangely
mapView
ATT
##erg
blab
realy
autoincrement
##pane
atomically
ethernet
10th
counterpart
banging
Yesterday
experimentation
United
desperate
Little
vac
COMPL
##Locator
RGBA
##6666
##span
Goto
advertising
Official
Bindings
SG
synonym
spanning
##IBLE
##ashop
referer
mr
profit
Netty
Particular
Persistent
##bg
##bytes
openshift
licence
Annotations
##orama
##Static
archetype
Bool
DML
injections
studied
prerequisites
smth
zookeeper
Certainly
notifies
recompiling
wasteful
VO
##harp
typename
ITEM
inconsistency
Har
##andy
##ublic
restructure
503
forking
30319
DBs
motivation
##ianness
##length
shots
Closing
Gives
grades
MESS
HttpServletRequest
overlapped
##bootstrap
datacontext
##onsider
impose
brill
Ads
SKU
##Allow
##soap
cheers
daylight
Expandable
traced
##fff
incrementally
bearing
cid
AdMob
risky
mscor
Jasmine
Numpy
arrangement
Bridge
slope
bigint
bcrypt
##viz
##illing
capistrano
RETURN
Direction
Hashtable
##hones
##rapped
Directories
gor
ness
##men
Configuring
##Now
##MVC
Inventory
misunderstand
WL
Deleted
##answer
##Duration
2n
david
##Daddy
popen
bugzilla
IllegalArgumentException
gson
ado
MIPS
Ever
XDocument
##scale
unneeded
forks
bottle
satell
posix
Sender
##Appender
Serialize
adaptive
##HS
StreamReader
didReceive
##rich
LB
dotted
apid
superfl
Z3
Into
ForeignKey
Fx
##enderlich
Provided
editText
forecast
##raper
Deferred
unenc
##osec
estimation
##oops
Labels
Distinct
utter
preserves
bypassing
bubbles
Koh
Yosemite
Generating
pthreads
##socket
Greet
lbl
##EMA
tuned
##a3
SAME
##Finished
ansible
##oter
Alias
impersonation
##Sound
whatnot
enviroment
Picker
##uu
ATL
IME
succinct
Pot
Isolated
sip
Cause
##parts
ManyToMany
##IFEST
istream
sweet
##elcast
Dates
##aron
Juno
setuptools
Postman
aligning
VT
attract
ADMIN
WWDC
conser
scroller
survive
##Sprite
Attempting
Hack
agile
jaxb
XL
gotchas
quicksort
showcase
UIColor
PictureBox
smoother
opera
randomness
##eman
##Download
Valgrind
##xr
Trim
Payments
fwrite
InvalidOperationException
stopPropagation
diver
002
cyclic
entitle
submissions
##Millis
##TON
##matic
##Env
parallelize
app1
nonce
##FileDialog
Beans
hudson
DOMDocument
irb
Forbidden
1252
##11111111
##Note
EXTRA
reappear
Dijkstra
performSelector
achieves
cer
intensity
perce
unacceptable
##pdb
BOTH
dum
inputting
simplifying
reversing
fpm
##VERT
undef
MANIFEST
TPL
SEC
hypothetical
delivers
phon
demands
Pls
sen
didFinishLaunching
##Attr
analogy
##gry
C11
Calls
cryptic
His
instan
INCL
Helpers
Synchronization
Repo
FileUpload
hd
##Ajax
##ftime
readLine
Printing
Operations
##Later
PROBLE
##onacci
##layer
##jpeg
metaclass
swallow
##column
webmaster
characteristic
pinned
Ins
##ku
destroys
##iffer
ampl
UIPickerView
##2s
GLOBAL
OVER
bd
##uase
##Predicate
ti
University
Nokogiri
appname
Family
emulated
DIRECT
collectionView
AspectJ
Vi
Bitbucket
occupies
##amation
orthog
##yte
poi
##Listeners
##estashop
fft
elevation
##CEL
##ertext
utilized
fname
invari
jc
leaked
myserver
Utilities
conference
##reek
Prefix
EMP
##inery
TimeZone
LANG
Magic
seller
hierarchies
##jdbc
m3
##v6
baked
##ambo
reposition
PRODUCT
OpenJDK
DAY
PDB
Droid
organizations
##enote
myList
recieved
FAIL
Maintain
##enode
Union
verbs
urlencode
MONTH
CONNECT
CGContext
invented
##Equ
frees
hotfix
ifdef
abstracted
IMPORT
India
Cython
TOKEN
algo
##ailability
callee
##Performed
rgba
##arian
WAIT
##Some
Cru
##ali
##Compose
inches
##Dom
receivers
XQuery
##AK
##inj
Charts
gathering
inaccurate
##icas
##inel
parallax
applets
don´t
bio
##b7
##mission
##elve
##parser
earliest
Bay
struggled
##graphically
sftp
WinForm
##Alignment
anaconda
116
##DIRECT
startActivityForResult
remotes
priorit
Billing
London
ech
##Light
##InSection
##MAND
Principal
QObject
kml
reconsider
##Maker
##aped
TestCase
100k
linearly
Jason
Moq
Slide
##entities
##uning
0x000000
NIB
##itles
##Flight
NService
accumulator
iAd
##zero
diffrent
Speak
##FSET
doctor
BMP
supplies
Portrait
scrollTo
Separate
##Fill
debate
Motor
##foo
happend
Capistrano
reinterpret
contrived
ctl
slowdown
Reser
motor
pw
localstorage
activating
Storm
authenticates
##Locale
##Fit
getAll
comply
tuts
Friends
##aro
##e2
Alfresco
Party
onSave
sampler
##GC
radix
Assertion
Implicit
consequently
untrusted
EST
aS
gent
onsubmit
spelled
##topdf
mu
INVALID
Games
criterion
optimistic
Assignment
neur
D3D
OutOfMemoryError
unsorted
bak
column1
0x800
Delivery
ouput
memset
##Boot
##develop
Nokia
WooCommerce
HI
##vi
lying
occurence
##hread
shar
lastly
REC
##azz
Streams
##vr
VIM
##c8
Broker
difer
CRLF
sticks
fm
##TM
semaphores
dilemma
##idy
justified
denominator
evolution
overflowing
seams
aggress
Geoc
Plone
STATIC
setImage
tokenize
NTFS
O2
##ogen
Unsupported
##Vertex
##Began
CreateProcess
sacrif
brilliant
conduct
inconvenient
cac
0A
m4
APNS
rusty
creat
downsides
GoDaddy
Slick
Fine
##Cancel
ASM
Listen
Fibonacci
gut
watcher
Repeater
##c6
proves
##Syn
approxim
Answering
Iterable
##tt
Mavericks
Bor
##fg
##cessary
taglib
movieclip
galaxy
##eh
delivering
Posting
intentional
education
theirs
##Explorer
##ToString
groupby
affinity
externals
OleDb
gsp
##p0
##editor
FileName
enormous
##adapter
Invalidate
##clide
Triggers
carbon
Aggreg
JScript
microcontroller
strace
psued
rational
##OutOfBoundsException
suspected
sloppy
inadvert
##Annotations
##prisingly
##d9
recycling
##plugin
Anyhow
Unfortun
300px
##eral
Extend
Mb
httpclient
202
guards
Intro
multiselect
interests
radians
##NULL
RTM
##ositions
adhere
passphrase
MEM
representative
chown
contenteditable
UIPage
unnamed
IIF
##Transport
##ago
dona€™t
Euler
##rock
##sembled
##istor
Googled
Wix
##ldoc
mycompany
metal
enumerating
SRC
SUC
ANSW
dun
##shop
House
212
Curl
lu
SOCK
buyer
September
morph
lit
queuing
COOKIE
Fund
gdata
alarms
##ogene
SelectedValue
CCS
FOUND
constexpr
subproject
##arbon
##Fault
MyService
##Scan
Requires
cg
tran
##Chat
budd
##Export
collapsible
##HA
posible
originating
VLOOKUP
PhpStorm
Days
Mah
Shut
manuals
##a5
##ilon
##ilty
asynctask
JList
emoj
129
Defining
az
##Aware
blurred
instructed
##d2
apro
literature
FIDDLE
Velocity
bothering
cros
##login
firewalls
LOCK
Mask
symptoms
hopes
subdir
TIFF
pcap
feet
blinking
America
PROBLEM
Makes
##component
260
boring
accross
Subscription
Fred
Publisher
##ygote
YEAR
silver
##dle
htt
ShowDialog
hav
##impl
##Const
sine
keen
WebRequest
iconv
sealed
##RESULT
openGL
Class1
FX
##Convert
casted
Mass
Outside
Rank
secondly
OLD
##Poly
##okes
intuit
Lifecycle
WebLogic
originated
Overrid
FAI
##tl
loaders
1999
Strong
##trans
Comparison
Mine
typecast
Edit2
subcategory
Naming
bite
shtml
coins
Jekyll
##ickers
superfluous
inspected
SwingWorker
##Conflict
insertions
Concrete
purple
stronger
Awesome
UC
ppt
spher
##grep
##ternals
ReadOnly
##Img
HR
mutexes
Audit
Baz
sand
Listing
scattered
Thoughts
pertinent
incur
##mend
mappers
ObjectId
coupon
myFunction
##SO
##uo
breakdown
correcting
##rypted
keystroke
participants
NIC
##TF
Bulk
Brand
CTP
rectify
##awk
##venv
##iliary
grown
elegantly
seamless
zombie
ourselves
cPanel
##quer
looped
palind
NServiceBus
BAS
begg
0x0000
objectAtIndex
mousemove
stretching
SQS
Ho
Russian
##riers
##ilies
##2C
##Dig
Till
ADDRESS
Hierarchy
arg1
myString
jruby
segues
unwind
Technical
brown
volt
Fox
asy
Rating
##des
JSONArray
favorites
attaches
yielded
sniffing
##Wnd
recognised
Activate
##Autom
mingw32
RD
##cb
##ullet
hackish
##f9
analys
ner
##asant
omniauth
##Alloc
##ournal
GE
LU
bed
linebreak
osc
swaps
##Autor
##Ports
CUSTOM
synonyms
Recip
##WithIdentifier
Footer
##RED
govern
##e5
camp
father
GUIDs
Rust
gle
probe
javadocs
exhaustive
Kohana
B3
##itution
Richard
PHP5
ROLE
##Partial
Ada
NETWORK
filetype
Granted
SPARQL
findings
PCM
imagemagick
intuition
bogus
##Attach
##walk
avi
##IDIA
0xFF
editions
shuts
Fruit
Rake
##ambigu
##OSS
##htein
indeterminate
MySQLi
predicted
##usb
ply
scour
mood
##Zoom
secrets
Characters
fellow
Perforce
##e7
##ulse
passive
##Charts
Immutable
##help
pairing
voila
MAR
modeled
argc
##c9
##ynamic
StringBuffer
Macros
comprehensions
severe
ignorance
sex
showthread
investigated
##Pixels
RTP
JScrollPane
documentations
bloat
advent
FFM
inappropriate
750
##TCH
##c3
##puted
workings
##streamer
##OW64
snake
latin1
##pose
ck
discont
microseconds
snow
getActivity
chooser
CLS
materialized
Typescript
piping
synch
##Install
HID
setBackground
damn
flipped
movements
spectrum
MIDI
recomm
OnCreate
DVD
cleans
THREE
##pf
rebind
Ten
wicket
##onding
IntelliSense
troublesome
Uses
DHCP
pym
Comparing
mathematics
Talk
iTextSharp
necessity
0x01
##abble
Stanford
##reciated
iOS5
RAII
Theoretically
Hat
textbook
Students
##xec
##MC
messenger
charged
Lex
##TEXT
##tras
equiv
regex101
Flags
nanosec
##notes
Anti
autor
multic
orthogonal
##diff
beast
##Lookup
meanings
MODU
Webpack
##cap
hotspot
Recursive
Ran
unserial
##Generic
##oders
Pos
programme
ticker
##fall
OnItem
20000
NSInteger
fundamentals
seat
##Speed
transc
113
##ozie
webpart
##fold
##emonkey
mscorlib
MSB
cats
BorderLayout
throttle
##bind
lenght
endianness
Calib
asserts
Couchbase
Maria
PACK
##mate
##static
seperately
defeat
OSes
couchdb
unsubscribe
##ionette
fulltext
Swagger
##MethodAccessorImpl
ecommerce
x3
responsibilities
Major
doubly
achievable
googles
##FE
brick
sharding
autoloader
vhosts
##Attributed
structuring
TYPO
##MD
signin
constit
##installer
Junit
behaviours
announced
nifty
##uec
combinator
frustration
confluence
remained
kwargs
identically
expertise
Colors
##648
Choice
##ilingual
FPG
Keychain
##MethodError
invitation
leaflet
Aster
marshalling
##quote
tg
chk
Grab
##Startup
Robo
EA
Eigen
PUB
lunch
Seam
##olite
locating
lv
##ausing
lc
image1
admittedly
##affe
appointments
evol
##a7
##ValuePair
##Week
infow
salesforce
fortran
dfs
Interpre
USERNAME
##plane
worlds
Ie
rar
##232
141
PendingIntent
##Needs
##jdk
arabic
Reply
##osure
Domino
FXML
HLS
rown
contacted
Blender
ub
didFinishLaunchingWithOptions
Sheet2
walks
CLOSE
##slider
##eclipse
categorical
moments
Ty
specifiers
WILL
##ecraft
quits
violations
cardinality
houses
##ray
Developing
IA´m
International
OFFSET
bootstrapper
hog
Andre
1080
##dele
compensate
lan
facets
diffs
NVIDIA
disregard
##venshtein
##vals
doxygen
opted
Worked
UNC
##android
postcode
Enh
fractions
wkhtmltopdf
Ros
Iframe
Flush
yielding
Manip
w3c
negate
##Updated
Looper
writting
ifs
contours
flipping
##Stand
CONVERT
mysterious
messagebox
minimizing
labelled
Creation
fileupload
##ificant
VIS
##embers
##Shield
##Authorization
gettext
##scroll
EDMX
Grand
Centos
Hold
servic
##Lower
mechanics
Supported
occurences
##lang
Buy
##itating
repeatable
young
rbenv
Xpath
punch
tumblr
underlined
##Fx
##Implement
springsource
forest
Initialization
S4
Zygote
newInstance
testng
planet
##csv
axis2
TODO
onc
GPI
Keyword
Research
##Coll
##Actions
diamond
Defined
KVO
uwsgi
##Sty
##abberd
fscanf
##osity
Assemblies
msys
Prevent
##ustral
yi
SOLVED
Std
Behind
Interactive
Continuous
##clidean
computationally
nn
##prot
##ebang
##urers
array1
wxWidgets
##PagerAdapter
Fork
refering
engineers
##strip
Skeet
sscanf
##emons
##oenix
lessons
countless
Routes
##ionally
TYPO3
##bay
##Binary
getProperty
##izen
nextInt
Mountain
##formance
commited
tz
iOS8
Symbols
enforcing
Food
##orner
toss
Ang
aliased
interle
100x
quantifier
auditing
mocha
sklearn
railscasts
ensured
OPTS
rigid
Patch
Ann
swt
sg
NSWindow
Repositories
##DAV
intending
runtimes
Docu
Algorithms
##Inflater
##amm
##Serializable
##EventHandler
ticked
Cut
##PLICATION
JDialog
Health
Smalltalk
HSQL
##Language
IoT
passwd
##container
##ACHE
heuristics
##vo
threadsafe
##Modified
##IFY
##384
137
Tips
gall
##Initializer
averages
OneToMany
QueryString
CultureInfo
TIA
jj
##Way
##icitely
funct
htmlentities
##017
ress
##emed
SOLR
e1
##Und
getChild
tmux
ta
##ipple
Analyzer
Duration
autogenerated
755
##Nav
Seek
ANSWER
##account
topmost
100ms
DWORD
guru
str1
IGN
openCV
Parts
##asemonkey
subcategories
##vd
appendChild
JOINs
shooting
TensorFlow
Giving
##eller
##ATOR
Gesture
##Sher
reactor
dicts
Dynamically
rebooted
jf
workspaces
Delegating
##Comment
Newtonsoft
outstanding
##rown
consent
Ess
##kes
bang
folding
vital
Guest
##llation
OM
##GUI
SCHEMA
##graphical
companion
knit
##alt
Ball
Sq
viewtopic
Spotify
SUCCESS
Integers
kr
Increase
##worker
##443
libxml2
shrinks
gcm
warns
Logical
Memcached
Forgot
FFmpeg
##ogeneous
customizations
stuffs
Autowired
Late
junction
backgroundColor
ugl
Platforms
mere
UIBarButtonItem
##office
Diagram
##eta
118
190
Ram
##Mate
BDD
Hover
intial
autores
drain
Sliding
neighbour
Namely
##osystem
vbscript
Servlets
J2ME
BFS
tact
pile
excl
neglect
i686
WAV
calender
MULT
strftime
workbooks
NON
resign
Appear
gotcha
##Question
wis
TreeSet
irregular
##writing
EXACT
WebStorm
intermittent
Doug
##ele
snip
yout
attrs
shield
ReportViewer
NONE
##opes
##mac
Shadow
Kepler
Overlay
##ubar
misconfig
FileReader
responsiveness
##before
MQTT
incorporated
H1
NIO
rud
Echo
rootViewController
Sony
##pute
Stuff
##atomic
antivirus
Fish
IA
p3
##owler
##ividual
chips
cpanel
mining
streamed
disposal
Jac
##idential
##ideos
Octave
##amboo
JA
evident
NSTableView
statment
ES5
##Btn
intervention
##express
stringWith
Handlebars
##ldom
retries
Anchor
responseText
##Sherlock
ApplicationContext
##pid
createElement
triang
textviews
backlog
Encode
##Bucket
##wheel
universe
muck
##isy
mangled
xd
convey
##TableModel
IllegalStateException
numerically
iPhones
enforces
##EVER
xmpp
brittle
Suppress
examined
NEED
cater
##empot
##gis
##RC
injector
HRESULT
Percent
Saxon
##kh
textblock
field2
117
thrift
disj
FreeBSD
onClickListener
405
databse
prototyping
rise
##oster
##controllers
NSMutableDictionary
sku
boto
corrections
crud
Ell
Derby
form2
vehicles
usecase
M1
##orce
subn
deser
##ardon
maintainer
##Dependency
pac
##Motion
incident
dut
##issa
ghc
decoupled
Squ
Python3
VS2005
female
##emies
SEARCH
Artifactory
##slashes
bookmarklet
##ACTION
##estore
##ompass
conversations
Care
Geor
vt
neater
##enda
##767
artificial
FireBug
##Transl
##ella
Alter
monster
Polygon
Runner
SP2
malware
symfony2
##plug
##comes
Thanx
##leaf
hasMany
apex
employer
tut
shaped
DataAccess
##HttpClient
##anda
##ordinates
JOption
neatly
arrival
Publishing
artists
TWO
hobby
RM
stringstream
##servable
Cra
##SER
watches
deprecation
tinkering
Dead
136
##UTH
prerequisite
reorgan
##haviour
##Vol
HttpSession
prepareForSegue
mathworks
##imentary
##REF
glyphs
Nil
Trusted
rolls
Signed
umbraco
modally
##xxx
Phase
clj
jQueryUI
##FilterChain
wb
inflating
auxiliary
##BOL
##gger
##eon
calloc
cartesian
Snapshot
##Broadcast
Bold
shebang
##ished
##seek
Compass
##lighter
disaster
Convers
mistakenly
Acceler
##Safe
##apon
monitored
Providers
gms
sans
##LTK
INFORM
truncation
HWND
0x4
ride
##dialog
##wind
Certificates
initiates
occasional
##uite
Forget
pertaining
##iak
##ActionBar
Migrations
##Edge
##hed
capybara
afaik
##usercontent
m2e
unicorn
##CIM
Relation
PASSWORD
Called
##spection
ZygoteInit
MvvmCross
activemq
OOM
##ez
##TB
devenv
uniformly
Doxygen
Fly
GSM
onkey
prefs
APPLICATION
Chances
Customize
proximity
browsed
WHAT
##Entities
##Words
##ommit
##Bindings
deflate
500px
##ETCH
##software
Composition
##iosk
Modernizr
##ril
##Exists
##otope
reflecting
dollars
##DM
gemfile
Showing
##Orig
Boun
injects
JComboBox
##Prof
##IRT
##PLAY
MPEG
HttpURLConnection
##x3
reinitial
impract
EventHandler
##anium
##ldb
resembles
Cycle
Travis
2500
CGImage
AU
advoc
Env
VMware
simulators
knock
HELP
cloudflare
##Mix
##ainting
TER
##RAME
circumstance
incompatibility
py2exe
eachother
multib
nullptr
119
complication
##OfWork
Calculator
##ota
scoring
CSharp
Premium
reconfigure
##images
Webservice
Producer
Replication
removeClass
dbms
Connected
convertible
Cod
DA
throttling
Jdbc
##bi
metro
Autol
Modifying
Genymotion
ancestors
uitable
##Forge
sandboxed
megabytes
indicators
Pager
replicas
##Failure
##sm
atlassian
plumb
participate
Capt
##erts
tokenizer
desk
Qt5
2k
Cour
NLog
0x00000000
heartbeat
##ifications
##REAM
Hans
plt
Applying
Apache2
revoke
Subst
scratching
Carbon
##endum
COA
substituting
Filtering
nit
##Tick
stems
Prec
Pred
##i¼
dataframes
Logout
##FFER
Typed
METHO
cors
performances
discarding
##VIEW
mathematically
myscript
ClearCase
inset
onReceive
alfresco
##appings
##Surface
##EK
8601
maximized
Lotus
maximal
Recent
InstallShield
Instances
stereo
##Rotate
##ACLE
##Foreground
##FP
imho
threadpool
encompass
Variant
##command
NY
139
Offset
Effectively
impersonate
FirstOrDefault
##links
IAP
tying
Principle
publishes
Messenger
EAP
becuase
##Force
JetBr
Tuesday
JSPs
Silver
statistic
##INS
Slow
##fy
##rem
hunch
Indy
LoadLibrary
theorem
tarb
##Pods
##ADD
##Supported
6000
bx
REAL
##Dbg
begun
gunicorn
2s
sep
##rips
doubled
ontology
onSaveInstanceState
cited
toArray
##icable
PROP
Staff
panning
##Occ
DBI
rebooting
##fps
unanswer
nextLine
##BACK
unzipped
framer
TextArea
battle
exceeding
##Serialization
abbreviation
hearing
##BN
##edException
nose
web2
imaginary
basing
Locations
autoplay
Disabling
UIViews
##F8
##A©
Weird
settled
mike
goo
EJBs
adjusts
manifests
##Spot
jitter
wix
blurry
##locked
Unders
ORACLE
##AKE
##THER
##pdump
backs
Kotlin
##lite
mouseup
##Delay
comboBox
Insight
pdfs
substantially
280
Ze
graceful
##tip
##Tags
SEND
pipelines
UART
remembers
mediator
acl
##Prefix
ora
settle
borrowed
MSTest
DocuSign
##pointer
##product
##augh
helpfull
##retch
HAND
sports
seeds
Luna
XElement
sublist
consensus
##Processing
forge
##112
Determine
overc
phen
predictions
Yep
##ga
openjdk
PP
Python27
ThreadLocal
##Flag
tee
##fr
##jc
explored
##vp
##OG
quatern
afterward
Ready
dictate
##Links
weakness
list2
mun
easing
initiating
SNS
##olen
worries
Electron
mq
Weight
datasources
Wo
partners
##ibl
prematurely
##xl
##Here
Retina
reward
##5252
GSON
multiplayer
Indigo
##ampling
supplement
augment
##Creation
dh
##long
addChild
TestFlight
FileInputStream
Quad
HKLM
a3
Widgets
##END
##aligned
beauty
Liqu
##Beacon
##Final
##Failed
##lesk
##etermined
connectors
BLL
Ivy
TX
##iseconds
EXAMPLE
##liers
##Animated
SUBSTR
JQM
misspelled
getC
setNeeds
finance
Holo
WC
boots
##Utilities
7th
setVisible
divides
jmx
##HING
downwards
equivalence
Hoping
TXT
##thought
getbootstrap
conveniently
div1
INI
PIVOT
summed
Requirement
Semantic
isEqual
chinese
critic
Geometry
0B
data1
glut
##osphere
COMMAND
pys
mongoid
Daily
##Owner
##ye
skype
accompany
Delay
##FORM
##Aff
someth
HOWEVER
Constants
bones
dry
shade
twenty
0x3
leveraging
symmet
hypothesis
Cascade
abn
##hd
doj
1100
##RGB
Presenter
Particularly
133
microservices
Luc
banana
focuses
activates
charting
jam
sha
organizing
Cruise
C4
depict
Mand
##140
JVMs
Mal
DialogFragment
discrepancy
##Rout
odata
##Criteria
lecture
lame
pn
##Vi
commandButton
DoSomething
##Share
revenue
redhat
Filename
getchar
UNIC
iteratively
UISearchBar
redrawn
broadcasts
FAILED
Hours
##ortex
ImportError
twilio
greyed
Raise
ccc
##Kind
##labs
Kevin
encapsulating
Pseudo
overs
##ointment
Prepare
IOC
bootloader
Clock
transitioning
145
##LTER
Pointers
key1
##arden
##APP
endl
impractical
mangling
discontinu
tp
##wood
decou
packs
224
Received
Bundler
ain
jk
bloated
fruits
##binary
operational
SendMessage
Physical
inital
##TestCase
i7
##icken
clearfix
asdf
databind
SIMD
##stone
##hq
Cance
Twe
##ady
centric
archiving
concentrate
aest
massively
Translation
##Employee
##pline
realizing
leftmost
##oooo
Datagrid
nop
int32
##areas
Tableau
Disabled
leaderboard
SSAS
lexico
unpacked
##jam
F4
centroid
notifying
uber
Exists
##yd
##aga
QS
lastName
PHPExcel
Declaring
rollover
JComponent
Leak
##argo
restricts
hashtag
ListFragment
PCRE
emberjs
inconsistencies
inactivity
##Resize
IIS6
##uls
codepad
focusable
embarr
##TCHA
tiff
bothers
SoapUI
RR
##lia
169
##Apps
Jade
Compiled
Trid
##thew
Actionscript
cyl
##Unload
##d5
getId
GitLab
educational
##HH
doesnot
vectorized
inadvertently
masonry
Thrift
multiplier
##dat
shops
EWS
##Free
aimed
##clusions
SPE
species
undesired
HEX
subtitle
##Join
REMOTE
cancels
adapting
1e
checkpoint
remarks
Latitude
eating
##iuse
xmlhttp
CSR
JetBrains
ham
vimeo
SECON
Extending
##2000
NSXML
dijit
131
masterpage
##ympt
Connecting
respected
Resolution
##LESCE
ms1
bell
donA´t
FastCGI
mytable
outlines
replicating
##Boolean
JBOSS
milest
##etf
testcase
##Monkey
##USH
noConflict
##ibber
laying
##rogramming
rtf
##uddy
Simon
JOptionPane
FETCH
formally
negation
resub
DependencyProperty
COALESCE
1600
CodeProject
AMQP
mypage
programing
Orange
encodeURI
vain
distorted
panes
##nail
charges
TableA
AVCapture
##HE
resumes
Blank
Tweet
qr
##noon
Saturday
MESSAGE
##Datas
Segmentation
embeds
##RANT
##eres
outermost
Couple
minification
darker
observables
bis
hire
AMP
##UIT
Medium
Dark
230
Volley
##uma
##Scanner
Ansible
##Sources
Refactor
simulates
##arness
Requirements
fox
##Common
vict
str2
O3
deallocation
capitalized
fab
##ief
extensibility
##Bottom
##MT
somes
parametrized
EF6
50000
##Direction
##icking
OpenLayers
syncdb
undert
withing
OWIN
##lytics
plaus
DTS
ZF2
Mill
##Has
nonatomic
keypad
Quality
PDT
Wave
toolset
VBO
##x480
ToArray
styl
##c5
sentinel
biased
Ice
hue
##Virtual
translucent
unmodified
##utability
extraneous
thead
Callable
cv2
##vv
fulfilled
throught
NAMES
##oe
IsValid
MVC5
progressive
episode
Andy
##Into
fashioned
AVAudioPlayer
##andid
postbacks
SQLFiddle
idempot
aes
##Answer
VSS
eof
##Push
isValid
staring
id1
##versely
##ComposeViewController
prepended
##Blob
##Running
renames
accidental
disconnects
UNICODE
t3
addSubview
##ounty
##ainted
##interpre
##ierd
flickr
##ISH
USING
mutating
Protocols
peo
##aion
picturebox
ScriptManager
##Transfer
##A1
##adero
cru
crunch
138
Vs
Scrum
summer
complications
DISPLAY
leaning
DMA
decrypting
Associ
Austral
viewers
YMM
rightly
Asyn
Allowed
film
Roman
rp
bezier
inexper
##ima
grain
##cleus
exhibit
FPGA
##Rules
forming
Accord
ksh
pyramid
Managing
dissap
requis
shrinking
Practice
enemies
##Raw
agreed
##240
HAS
planes
RTSP
NSManagedObjectContext
Arr
degrade
fullcalendar
Depth
tremend
##ding
##When
ecosystem
211
Visitor
##qr
compelling
50727
STDIN
glow
##nish
Comet
DirectShow
intercepting
plumbing
##Movie
repop
##covery
GMail
Tornado
hid
waited
Interval
doubling
subroutines
Revision
epsilon
hasNext
idiot
##OptionsMenu
Constraints
##tom
##f7
correlate
##drop
##Opt
CreateFile
Grant
Cartesian
mus
alternating
Jmeter
browserify
##gorian
Judging
trading
UIActivity
initialising
autocompletion
Illustr
##acked
##ictures
ejabberd
##d7
##Fac
scripted
instructor
doGet
exposure
Mainly
Detailed
##tab
LatLng
##Multiple
appDelegate
ncurses
soup
##Detector
reverting
##quently
##atively
HomeController
beeing
##acles
makefiles
calibration
##etext
unanswered
lis
purs
unblock
directs
##Editable
##Cells
VHDL
5D
tsc
Slim
strpos
prefixing
##PACE
IFrame
reducers
domain1
decomposition
exclamation
INFORMATION
replied
##Inc
decreased
PARAM
fw
magnet
##lg
killer
mobiles
interoperability
Scrapy
Roaming
##CPU
##ulink
##ERENCE
##ERROR
distur
Renderer
##legant
anom
Arrow
##widget
345
##qus
COLL
getElementsByClassName
patience
interpolated
scott
cppreference
##ienced
##Done
whith
##ThreadPool
Shopify
Sale
Wide
Linking
##fact
bp
##ECTION
##inox
setUp
##Prov
##DatePicker
##Alias
complaints
retreive
##stab
##ubble
##lm
##agios
Shortcut
Mesh
findAll
decipher
##cons
Secondary
smoothing
##Handlers
jac
charAt
hotkey
4s
gamma
FOREIGN
win7
xhdpi
Sil
shirt
Inserting
Statements
MariaDB
Relay
Gra
##worth
broadcasting
011
##cgi
Addresses
grants
##ordinator
##Geometry
Infin
##Stats
##Short
Teacher
Retro
regional
fmt
Flag
sqld
Opens
EXECUTE
##NonQuery
Kr
##ians
##729
gadget
kar
getParameter
struck
##cular
crm
ClassName
mootools
##ServiceProvider
186
tesseract
##ademy
DoWork
OpenShift
##GDX
ListItem
##194
uint32
##ndi
##Decoder
xterm
##Ruby
thereof
descent
INIT
POINT
##Ns
##Xy
Packet
StreamWriter
cst
freak
violated
worklight
burst
##Tracking
FILTER
fprintf
##TING
##aping
Activator
Od
Specifying
Bi
websphere
ByteBuffer
competition
derby
BaseAdapter
Individual
embarrass
3F
offscreen
broader
Expires
cypher
##Days
Ken
METHOD
guava
completly
##blur
Lu
gotta
nonetheless
crappy
EMR
Mutex
qml
strnc
truncating
summation
##qp
Conclusion
143
##amba
destinations
arrayList
silence
ietf
##iterate
schools
qualifiers
tcpdump
Appium
MacPorts
Workaround
VARI
alphabets
Pe
##Cir
##ography
##2222
CXX
deletions
satellite
uiview
##itto
##OTO
interfacing
TRANSACTION
##Unt
actionPerformed
quirk
Cocos2d
##304
specialize
loan
sourcecode
ASIHTTPRequest
789
##resentation
javas
##rest
metap
CLLocationManager
Ol
##A0
##enumber
##ptime
##epar
RequestMapping
myuser
Sequ
##STATE
##Connected
##kits
int64
##ermany
DOMAIN
Loll
adt
##ierra
brands
Parcelable
P4
Rotate
Pu
recurrence
GPIO
GEN
ViewDid
##fortran
HDF
##eto
coders
FCM
##Persistent
Remoting
Organizer
Deserialize
##ibberish
fist
DataBase
Pipe
##Based
alas
SQLException
aims
##loaded
userspace
00001
wow
##bt
caniuse
##asking
##console
GetValue
dlopen
NSFile
defaulted
splitter
Locate
Asterisk
VR
waitFor
residing
Cave
Standards
scraper
rewrote
e2
##Roles
county
##ASP
Phases
Stephen
Themes
##byte
##away
modals
##FW
BOOST
forbid
Hz
patients
##quiry
King
NSURLSession
dod
ADF
StructureMap
checklist
##Diff
##phem
432
securing
Divide
Underscore
ae
imagec
##555
vir
autop
virtualbox
SCSS
claimed
##Credential
analytic
Greg
rdl
RAILS
divisor
mart
pays
spline
ceil
##unities
shouldnt
MDX
##vh
REQUI
BG
Cpp
lapply
generically
FLO
nonzero
ProgressDialog
JQU
##Simple
##hosting
PEM
##Prod
keyboards
xcodeproj
Kill
hull
assured
##oneycomb
##Find
onKey
notable
NSIS
STOR
##flush
##Team
##layers
Executable
sleeps
epoll
ace
##Finder
##pu
autot
mapview
##Thumb
##Plan
recomend
died
##OY
deps
##Threads
participant
couchbase
BA
##Ord
##cially
##Workbook
##Projects
Hoc
fals
myclass
CHANGE
rudimentary
YMMV
##Distance
##aks
winning
Saved
##vec
##imination
pickup
Upper
##TableViewController
nunit
##enet
Legacy
##Integr
##f3
moreover
sysadmin
teachers
##Invoker
boat
Jsp
##vt
harmful
##Constructor
##INA
enhancements
##inf
##asheet
Org
futures
Dimension
##hl
startDate
avd
207
heatmap
##kt
reck
##ivo
Aff
##INK
contribution
AttributeError
UIWindow
GUIs
ValueError
65535
##Hot
shake
app2
travis
interceptors
##mond
##kers
##plots
getContent
##aiton
cfc
Cloudf
Bouncy
TId
AVFoundation
mission
Marketplace
differents
Listbox
##arnish
2px
tent
sproc
##itchen
##ycop
##Hello
onbefore
dj
representable
Leaving
Lollipop
P3
##RM
Subscribe
temporal
ifstream
##Enumerator
##library
CLE
defaulting
175
##emarker
decay
wheels
DJ
EG
##GTH
antlr
##ita
explicitely
intersections
truthy
Timers
bugging
uncommitted
Mongoid
imposed
ActionBarSherlock
xerces
unwrap
tone
stations
poke
502
alphabetic
Snap
Flip
clocks
Combobox
dug
Procedures
untrack
142
##Symb
hp
vaadin
##ensible
relied
Log4j
##Alive
Ip
Compress
Recipe
ellip
perldoc
##OpenHelper
##else
vastly
##x8
##voke
director
Glob
recaptcha
cpan
peaks
Words
jum
Enjoy
sneak
delegating
X1
STOP
accelerated
optimisations
Artist
##estream
unions
deactivated
squeeze
##hu
concluded
framerate
trials
Ur
Void
randomize
ASPNET
infowindow
IGNORE
name1
FindControl
##agic
asympt
carrying
Simplest
##keeping
CONTRO
apostrophes
id2
0xC
ranks
##Disappear
CocoaPods
##Registration
stumble
##Constraints
##WR
##rence
MacOSX
uncommented
LGPL
GOO
frow
ze
flood
##km
jquerymobile
Resume
##ADO
COBOL
##VR
Webdriver
MODULE
Logon
peoples
aar
Intents
accomplishes
precond
##ByteArray
tabindex
serializers
SessionFactory
MUCH
##edriver
onPre
##Started
fell
MyCustom
##125
Operators
march
##ych
##orious
presently
GameObject
##Standard
BBB
tac
selective
Visio
##102
redrawing
psuedo
NEXT
PERS
##first
mechanize
Band
##eded
handing
GridBag
Terms
##Condition
##broken
pojo
param2
Guard
follwing
Gulp
##asa
##quet
##Initialize
t0
##kB
identities
Preprocess
Mil
##owness
desktops
userdata
Redshift
warrant
TASK
income
ProjectName
Abort
successfull
CATAL
Agree
trimming
enlarge
HIG
uml
upfront
DataType
aop
pausing
##etter
cocoapods
LENGTH
wouldnt
##Usage
##ensed
##idding
Protected
gene
rejects
beacons
journey
Monitoring
echos
tutsplus
##Measure
##deg
beanstalk
EXCEPTION
152
stolen
serializes
greet
Jonathan
##rad
##usable
##inte
managedObject
##WD
usp
evolve
obs
##etica
##Gl
moveTo
hackers
Downloading
VirtualHost
Redmine
30px
CGPoint
Cocos
Xms
synchronisation
Training
slowest
Roo
surefire
webs
##interest
5B
Accessibility
##instance
mirrors
Frank
Shipping
##ListBox
discovering
ROWS
p0
optimum
##368
emitting
Orientation
textareas
modifiable
Mechanize
haystack
##TIME
##swith
RI
##etable
subselect
intercepted
Optionally
comboboxes
Tensorflow
remap
coz
grammars
dogs
##losing
updater
##Calcul
PRIV
YAR
dtype
gross
##itz
coldfusion
##dll
territ
nltk
Lower
gcloud
sas
Dalvik
PLEASE
Queues
OTHER
crow
##f5
##LOCK
PROD
ACS
Moo
##omorph
yourdomain
##achability
baffled
Rcpp
cult
##LC
156
DECL
##Volume
1M
tring
##rtc
itas
buildpack
##abyte
##Moved
Varnish
coordinator
Undo
8th
uc
##Tw
Wondering
##A2
##Decode
scary
unity3d
666
dread
##erated
##iley
loggers
dateTime
JNA
Mob
##Upper
OpenOffice
mantissa
##emu
##That
ICommand
earn
allways
##ebra
Suggestion
ciphertext
til
##pattern
controll
##ssh
PHPMailer
##Catalog
##Border
popularity
MPMoviePlayerController
unsuccessfully
grayed
plausible
Turing
pyg
##nesday
gloss
FFMPEG
1d
ogg
spanish
Disposition
TempData
unpacking
##audio
##011
Enabling
Matches
Statistics
ddd
noh
DEVICE
crossed
accented
touchesBegan
liquid
NLP
refund
OWL
stanford
Leaflet
Folders
##wich
Wamp
gstreamer
item1
##306
allev
Explain
Downloaded
flashing
deduced
Occas
INCLUDE
basename
##LOG
JQUERY
##Crypto
##aler
VideoView
consolidate
##xxxxxxxx
manpage
contentSize
abcdef
3g
TKey
needle
respects
thesis
grok
colspan
##alyst
cob
##olith
nowrap
reverts
superset
tinker
##orb
Activation
##sth
preempt
arounds
##XXXXXXXX
getattr
Plunker
ya
##UNC
##qa
Icons
Puppet
IDL
a0
fledged
lw
TransactionScope
##dig
##pop
sampled
ReadLine
BaseClass
EditorFor
smells
##abc
##ERO
blows
##Exact
##authent
##Functions
aggregator
slowness
GetData
##uctory
##144
ehcache
Networking
crossing
Swap
cosine
##ffffffff
CENT
##ensities
manufacturers
Picasso
unencrypted
fib
384
sdf
staged
outcomes
arme
redmine
glDraw
investment
jer
##Vim
CreateInstance
complained
ABS
RTTI
microservice
Favor
uis
##boy
succession
##ARCHAR
coloured
Gate
War
cite
pf
##default
webapi
##axis
Sym
horse
Playing
Applic
wierd
denoted
JOB
improperly
##Bay
##Rotation
Tablet
Supplier
Upgrading
Paperclip
gentle
##yme
viewControllers
Typical
attendance
ejs
class1
XmlReader
advertisement
NR
IFRAME
##inja2
district
##REEN
Known
jon
monday
Inet
Combo
CONSTR
##aticaly
polar
Mid
Margin
##ableBeanFactory
array2
Jsoup
confidential
mysql2
Far
inode
##Room
abbreviated
bleed
Bur
##Break
##−−
Tier
callout
ASMX
kids
MyModel
JW
dic
sle
v201
tow
thereafter
ApplicationController
##777
##EMPL
Omni
mileage
DY
Hang
##Expand
successor
Tot
##imitive
3600
diferent
AIX
fur
LinkButton
Greetings
Ban
Campaign
SHA256
typedefs
mas
resumed
LOCATION
dose
getContext
confirming
Ia€™m
BF
projections
postimg
Artifact
##DERR
Simplified
hrs
10x
claiming
bridging
155
XB
##iko
overrun
Instrumentation
##Styles
GIL
PATCH
RDL
pizza
Ignoring
fastcgi
u0
Shader
authoritative
ControlTemplate
THREAD
EOL
Proj
universally
obey
F3
mos
mydata
##502
MediaWiki
contributed
##Developer
threat
##ypress
##ilde
##password
Heb
formulate
##Validate
wasnt
Trac
Djava
string1
149
drags
families
armeabi
ConcurrentHashMap
Tex
employed
##message
##cookie
##craft
##Codes
##provider
tomcat7
Priv
##Second
Mint
vid
##Kernel
##icky
Cant
FlowLayout
Julia
Med
##YPT
hardest
##Tile
##icked
##Transformer
POJOs
querySelectorAll
Containers
YY
mute
Apex
Pause
elif
IPA
##345
casing
##si
Hybrid
servername
##DTO
##Arrays
##hare
javaee
##erex
instinct
Respons
Fancybox
por
tal
IDictionary
distortion
##entrant
wisdom
tarball
##gui
##collection
NAS
ny
onblur
predecess
Survey
Alternate
##vised
forName
ALSO
WIFI
um
##wenderlich
SSC
piped
tornado
grap
rightmost
associating
Amb
Cognito
retail
honor
UNS
Populate
PREF
ber
##acks
PARENT
##Equals
Cars
bounty
fget
##Decl
restruct
##delegate
clientside
angularJS
Formatter
##between
SOM
databound
Processes
##ipeline
208
##640
##forums
ni
##size
##Bal
accom
server1
Scaling
VARIABLE
##gt
setProperty
WORKS
lb
itext
fragmented
abstracts
##DidFinish
runserver
BeginForm
##Notifications
executors
Sherlock
##ructor
enroll
snag
##objects
Mic
##Agg
##chat
262
accumulated
stitch
Atm
TextMate
##vations
namenode
##Tokenizer
setted
A5
Lang
Tue
0100
dire
folder1
robin
##Pipe
suffers
##this
filesystems
drawImage
AZ
wary
ith
##ITLE
##ToFile
Mime
##ribed
surfaces
encouraged
Cipher
##oned
##airs
stretches
##ercise
##FirstResponder
onbeforeunload
inversion
##AsStream
psycop
Compression
fitness
Swipe
stepped
mcrypt
Mov
similarities
complicating
blabla
West
Assistant
weigh
0x80
ZeroMQ
csh
anticipate
##Power
##plevel
##andal
310
Predicate
fid
val1
captions
##PEND
Nob
##erting
onBack
206
AVG
##ucleus
twist
web2py
##param
cubic
Haz
##tee
subshell
146
STM
##Self
formerly
WO
##700
##urd
##email
GetAll
intersects
##rizz
CMAKE
##CheckBox
banned
##Times
##blah
arriving
dunno
##icaly
internationalization
unbounded
sweep
##401
##vetica
headline
contacting
EXTER
##Age
##veys
enctype
Indexing
emphasize
untracked
GRANT
Hour
jud
##keley
allot
divisions
Spot
minSdkVersion
hugely
jekyll
##sa
stringBy
afternoon
elementary
Rub
PCA
SP3
EF4
ExecuteNonQuery
65536
##AZ
Motorola
ju
comparer
##Connector
furthermore
##Username
##ombies
Oddly
Bench
ud
chris
Joel
medical
beats
longs
##oids
Displaying
uitableview
550
fstream
mip
adher
Macbook
neccessary
Mes
prebuilt
MyTable
162
profession
Protection
meshes
##PIC
lib64
ICMP
simplexml
253
pulse
Offline
transmitting
##x9
##ffici
disrupt
KeyDown
UserControls
##RunLoop
##ONT
##ERIC
##Student
ours
Pythonic
Transition
Ghostscript
TextInput
CLOB
balloon
illusion
##unct
##160
Denied
FileOutputStream
voltage
##EMPLATE
Fri
##gly
##You
RavenDB
##mah
##estring
truck
prune
dinam
Semaph
cz
ie8
216
Instructions
##rillic
JTA
##abil
miscon
Direct3D
Creates
##free
finer
##ontrol
farther
MSIL
400px
Utils
##gence
##Fly
Thu
##quency
ORMs
rmi
conceiv
ipsum
jagged
nz
pars
##LDER
contributing
##ippert
##Modules
palindrome
atoi
arg2
153
Flurry
obj1
datastax
UV
Chain
IDP
zipcode
daemons
UIPageViewController
Turbo
Dummy
##uminate
crossdomain
Hebrew
##Fabric
##imize
ICE
##AH
buildings
SelectedIndexChanged
ja
ObjectOutputStream
##Enumerable
DevTools
discourage
Fake
SPACE
F11
posters
STDERR
BODY
Overriding
Gender
Trees
##rell
libv
LinkedHashMap
Retrofit
mental
##ROSS
vouch
##cases
column2
##Heap
echoes
DerivedData
##estry
##izon
repetitions
##stud
##iva
##beh
oddly
synthesized
thickness
MEDIA
elf
appendTo
manipulates
RK
JPQL
AH
##Story
ContentControl
introductory
SIGSE
##ansel
geocoder
formated
upvote
holidays
infix
regenerated
Casting
reluct
Quit
Sing
amort
dynamics
godaddy
sigma
jb
NSIndexPath
##DidChange
FormsAuthentication
##yal
##exception
phar
EXIF
UDID
rdf
##More
stre
uname
genetic
##Period
Es
james
##inking
drew
checkmark
##LastError
##Setting
Claims
RX
interpreters
##mc
OLAP
4x4
HL
capitalize
Rock
Sequel
Combining
coincidence
pron
Appearance
Nv
##umar
businesses
##acl
Older
##LIC
##MainThread
DET
LCD
##ely
UInt
Canada
coerc
##adation
inputText
WinS
IndexOf
NSOperationQueue
Literal
Trad
Transparent
zooms
herokuapp
##Until
##aters
StartDate
Gui
strikes
mirroring
##runner
Wrapping
Layouts
##Extender
naked
addTo
Availability
barcodes
##Variables
##Gui
##chimp
##UGE
Technology
NVARCHAR
G1
Sug
backtrack
##update
##802
##Assets
raywenderlich
Experiment
idempotent
Owin
##vw
infre
Polymorph
LayoutInflater
shuffling
Occasionally
##iam
myVar
##teen
Timeline
rog
##edish
myData
##ModalViewController
toggleClass
Longitude
BPM
Pods
judging
nvidia
##icons
intl
Shopping
##Requests
covariant
##pgsql
##anies
IsNull
Bon
Jupyter
contest
##reshold
Matching
gibberish
##nal
theses
bitrate
ProGuard
Shows
0x2
##header
Tokens
##Publish
projected
menubar
##sd
booting
WinDbg
##ftp
pipel
Needless
pedantic
ratios
Kibana
ModelForm
FRAME
##GINX
TZ
##3e
##Bulk
plone
plunk
ERP
gift
##adb
##yname
Computing
magent
overlaying
NLTK
getopt
baud
Clarification
AAC
XUL
cann
Seriously
behaved
164
BASH
Matcher
keyframes
postman
reddit
Importing
hc
para
complexities
turtle
##Consumer
CAB
##AUTH
getApplicationContext
MSG
HtmlHelper
clobber
dur
spur
lein
contentType
ulimit
##222
emoji
NGINX
##UX
plyr
##CG
##ald
Ital
WebApplication
Levenshtein
##OD
##lectric
postMessage
##ji
##Operations
RootViewController
BASIC
DataBind
NULLs
Rational
##tos
simulations
amplitude
gzipped
numberOfRows
jupyter
##ursday
intrusive
Sierra
##Buffers
Stata
ioctl
Throwable
EPS
GONE
PST
cloudera
bootstrapping
lined
nul
sqoop
sinatra
BLOCK
Programmer
geometric
Peer
someway
##placed
8081
##matically
Angularjs
8GB
lend
youre
randomized
##Ended
##kat
jailbroken
Pad
##c7
Birth
Cos
##pedia
composing
mainstream
Detection
buried
bouncing
JNLP
zzz
freshly
##alcon
memor
packag
203
AOS
suffixes
##NE
dba
Paragraph
##ymeleaf
##ateur
Plz
flattened
gaining
##alar
activator
splitted
##104
l1
coerce
##LEMENT
fitted
myTable
atlas
disci
sz
##ller
glu
##PAPI
FileSystemWatcher
frowned
harness
Datasource
Contracts
recommending
148
Attachment
Cryptography
Multipart
NSTextField
Useful
footers
HEADER
SpriteKit
gfortran
##Alpha
verbosity
ridiculously
holiday
##AttributedString
bom
##Paths
vaguely
V4
mich
stone
154
glm
##odbc
MOVE
geek
##vg
ENABLE
Persons
announcement
jndi
buff
nohup
Fair
##Abs
##Singleton
accompanying
neck
##kk
blogpost
##Grad
KDE
##bur
project1
##Docs
Assigning
Wear
##hold
##zo
it´s
clarified
Datetime
Absolutely
onmouseover
darwin
##olor
ComponentModel
unserialize
NSSet
doPost
monolith
purchasing
fxml
Scrolling
protects
MOUSE
DUPLIC
imo
log2
Test1
duplex
##ContentsOf
saml
##erd
##omment
spool
rom
miser
batching
QB
gyp
HotSpot
seats
##FFF
crawlers
##Comparable
Interpreter
QList
TOT
##je
alg
eth0
Forgive
##yl
10s
serverfault
OSGI
BSON
unselected
pch
Science
i5
selectedIndex
Deprec
##Subject
currencies
wiped
seo
##official
Channels
acess
##Bridge
##estead
Directly
jumped
BAR
vw
China
swipes
reckon
Tal
Took
wss
appric
NameError
viewmodels
golden
wood
##ERTY
eric
##Cover
##eno
CONTAIN
Az
varargs
immutability
Gets
sus
##JK
ObjectInputStream
developerworks
DispatcherServlet
501
##Added
Handlers
shapef
Ti
shock
ngModel
##Profiler
sniffer
Resolved
##etera
Restful
Roslyn
##rizzly
##Jar
##ANA
kicked
cql
WebDAV
Directive
TValue
NSPredicate
algorithmic
Discuss
Jump
ViewControllers
distant
##Coding
layoutSubviews
gitolite
ImageIO
stamps
##Wizard
QuickBooks
geared
Felix
delt
##UserBundle
attractive
MORE
##Tcp
##orean
Letter
suffering
interchangeable
SFML
Lorem
UR
##aing
##vari
gladly
logarithmic
appium
ArrayIndex
WSS
##aq
spi
Prox
saver
intentions
granting
##igence
interruption
signalr
stucked
rainbow
Nobody
javaScript
Carrier
Clipboard
##4000
transit
expressive
ics
CQL
Ec
##DOW
opend
freq
curses
##u8
classifiers
##lox
151
##Padding
spree
##connected
##ogella
225
500ms
dyno
DUPLICATE
Af
NL
##Perc
196
WinAPI
REGEX
Mis
iMac
nHibernate
##once
##itudes
Aaron
Tracker
varbinary
##proof
##DIFF
recyclerview
TTS
csc
mash
##sn
##athers
##FactoryBean
discards
##oller
bison
##YM
Invocation
SIGSEGV
tls
tiers
##archive
Infrastructure
Slight
##AsyncResult
CASCAD
##Separ
octave
datalist
##UAL
DbSet
Allows
acquiring
GN
watchdog
folowing
wd
JUST
rowid
aplication
forKey
##122
OT
div2
JEN
OTO
tha
KeyValuePair
##ICS
SQLiteDatabase
extractor
TableB
lovely
suppressed
Association
dereferenced
disassembly
Skill
##Lif
##unting
data2
prefered
Wind
king
##ani
##tefact
##pcap
findall
Mapped
facto
##DropDown
vf
spike
##ipart
420
ISS
playframework
lasts
184
##Mount
##Private
spag
##Compare
opportunities
restaurants
NF
litter
Webview
exploded
Entries
DOT
col3
presentations
screwing
Axis2
4x
##GH
blender
Jelly
kiosk
Compl
##disk
accents
##escreen
BINARY
EXTERNAL
Jay
QText
##los
customised
misread
MVC2
##oodle
##709
Barcode
Retrieving
FxCop
##options
enque
evict
drawings
regarded
##Simulator
yoursite
slideToggle
vent
##mediately
obstacle
CID
emailed
SQLite3
slideDown
##324
FBO
owl
Recognition
299
YUV
taller
##aneously
collapses
e4
##itably
##qube
questionable
MasterPage
roadmap
##ills
##Should
##reports
Pg
award
##css
advertised
disallowed
##Archive
Arithmetic
##cutil
Completion
Oops
vista
##Cycle
differential
origins
portlets
practicing
ProcessBuilder
OTOH
CROSS
X2
##Guid
minimise
Coco
##inn
DEP
Understand
Concerning
ivars
ebay
##apy
prefers
JsFiddle
##uded
##uffman
2x2
coalesce
NSXMLParser
GZ
Sails
WebMethod
##ospital
##2014
##FragmentManager
##irected
key2
vtk
##Mgr
188
ConfigurationManager
Cool
pfx
AngularJs
Turning
mounting
seldom
MainForm
HASH
wstring
##ixir
##646
Areas
SYN
Mad
##anoid
JavaMail
##644
CoreFoundation
impacts
##har
bugfix
MOC
##2k
UIs
macos
##uggable
ICU
ebp
flowing
Followed
##Filters
weekday
EMAIL
COLOR
tween
goods
UIElement
rated
Dict
##BI
inbetween
revalid
Various
spotted
TEMPLATE
nx
strcat
parseFloat
aggregating
WAN
datagram
permalinks
negotiation
##Fn
Websites
geomet
Equal
REFERENCE
BUFFER
KN
prel
Flickr
dismissing
##GRAM
incorporating
Fundament
CASCADE
Karma
Targets
cored
intermittently
authorisation
Frankly
##andoc
creators
rejection
Len
##cn
DataContractSerializer
tns
##SL
Advert
Gold
##ListAdapter
Sky
##tech
##Qual
basicly
L3
vlc
Calc
cdecl
TABLES
Knowledge
##NOT
DataReader
STEP
ez
parity
ISAPI
##IFIC
publications
subscribes
##tone
URLS
TableViewController
richtext
Responsive
Bat
runn
titanium
GI
cleart
Declaration
mortbay
HUGE
zxing
proxying
QtCreator
lem
neighbours
OID
displace
standart
##Stat
Pictures
Videos
comet
Exclude
UUIDs
CATALINA
4G
Eh
EAV
TextChanged
0xFFFF
010
decompiled
TITLE
restores
PRINT
innermost
multitasking
##binding
systemd
ISBN
Bucket
MODEL
Fowler
banners
##rint
##icc
multilingual
configures
SSDT
##Codec
tower
speaks
Identify
gemset
varnish
cheating
##jarra
Informix
Collector
MouseEvent
kicking
ramp
##template
getResourceAsStream
##gener
##hrase
derivatives
metaprogramming
APPS
namespaced
SECOND
Ship
redefined
tailored
c3p0
soul
1433
mockup
removeAll
marquee
stocks
VNC
unplug
technetwork
fuse
tast
174
ADDR
loud
##DAY
logn
utilise
Providing
2147483647
DAG
ephem
##graded
##ragistics
##Metrics
##itting
##109
##castle
snmp
Fixing
##OPE
##enue
redecl
stealing
SQLiteOpenHelper
Wildfly
Units
##Enable
datetimepicker
Slave
IdentityServer
Kent
wand
xn
##KINS
##uri
##output
Manufact
skins
CodePlex
tablesorter
shm
emulating
strike
opts
NSError
##Signal
blogger
extention
bootply
MOV
poking
##wizard
Cypher
##peg
Log4
macports
##ForRowAtIndexPath
TextBoxes
##hetti
Babel
Germany
##ousing
expressing
tad
OSM
Stateless
gas
wys
negatives
srv
shout
workout
becouse
deposit
509
223
2a
arent
dictates
liquibase
##LIB
coworker
strptime
Yellow
##AGES
##flags
toolbars
instructs
##rated
FileInfo
contributors
Copied
ManyToOne
surprises
Terminating
##zing
##YK
##status
JSfiddle
winded
##orated
##stitial
##bread
aligns
Law
jwt
objectForKey
##otions
statics
Destroy
##════════
##ille
##yyyy
XmlElement
Lost
##Bits
##location
breadth
IHttp
getConnection
##sson
concatenates
##factory
Hierarchical
##105
##344
lags
GetUser
introspection
inetpub
Wnd
econ
producers
Feedback
cython
depended
ViewHolder
##rode
Neural
ContentType
Supports
##Packet
##Sender
##lad
trave
ARCH
resend
##raz
TRUNC
Pressing
rethrow
JENKINS
##wrapper
needlessly
paul
AVAsset
##Wrap
Requested
##Props
Spatial
Likely
Helvetica
galleries
##hp
uncond
FLV
buddy
5MB
SING
##mad
setData
fla
laws
paginated
##Coordinate
Natural
unintended
##Percent
CU
##gery
traditionally
UIButtons
ArgumentException
aggressive
##ectl
cellular
trickery
iReport
##ority
signify
ToolStrip
chromedriver
unreason
disjoint
Dapper
##LINE
##msg
##CU
##Aspect
envision
W3S
dbname
Logged
erasing
XPATH
Cube
Notebook
176
dashed
monads
Cust
rn
runners
##scode
revise
Kinetic
Yo
referral
##Cluster
embeded
PROC
Zen
puzzling
MotionEvent
HSQLDB
M3
Scr
comprised
SSCCE
##hub
JSLint
GetCurrent
diagon
exponentially
##yo
Flexbox
USERS
overcompl
##tles
##303
ImageViews
Coded
getExternal
##spector
##oints
AVX
spo
165
1x1
##atisfied
immense
degradation
bomb
Restarting
fees
prepending
BAT
Rspec
##AAA
THe
laptops
NSNotificationCenter
Brief
exchanged
sshd
Borland
##rockford
thingy
insign
TRACE
setState
Staging
##103
##Seq
javap
BitBucket
ranked
Beginning
##Dump
PostSharp
eats
EXIT
strtol
waveform
Mongodb
##arking
CFLAGS
setNeedsDisplay
isEmpty
asd
retrofit
##DOWN
Infl
ArrayLists
Hosted
steep
sentiment
##Imp
picky
RTMP
##mitted
dispar
Greasemonkey
XA
##imeter
##DataProvider
preparation
Gradient
webapplication
deduction
##andidate
pollute
XE2
Pagination
fuss
##ecasting
gevent
stumbling
Australia
Eng
phenomen
B4
viewFor
argparse
hunt
applicationWill
substract
elseif
GroupBy
intelligence
cancelling
writeable
spikes
Uni
1000px
impressive
decoupling
ore
wine
bitset
WinXP
disambigu
Beside
hight
arcs
##Country
nonex
Brad
##olfram
alerting
site1
DataView
groupId
##106
ISession
##found
SqlDataReader
mvvm
awakeFrom
formset
Weka
Restrict
unwield
Tiles
chop
speeding
##easy
forem
ASAP
MEAN
cdnjs
latt
##IGIN
assistant
builders
goodness
##shot
TestClass
gradlew
IEC
speakers
CruiseControl
Mont
getImage
severity
CString
Pentaho
##004
userInfo
##ETED
TLB
prettier
dbs
##caling
intersecting
288
Crypt
qsort
##ati
posed
TabHost
invariants
##idirectional
maker
Contrib
INV
studies
SLF
##details
Past
##Notify
##Entries
##bility
tab1
aria
SES
recovered
abbreviations
Padding
aj
stopwatch
Int64
##ofire
##1b
##Clock
transfered
##ICAL
##ResetEvent
##Friend
putExtra
presuming
BID
appserver
##aky
Grouping
Evaluate
LT
##Categories
##imo
oop
##x16
##Na
##greg
REFER
##anselman
inorder
UISeg
misinterpre
##OnMainThread
Adaptive
##pin
clim
##ournament
NSDateFormatter
OSS
Won
##Family
gauge
##rpc
updatepanel
##328
ISR
##olutions
abrupt
ava
MySQLdb
urgent
##Else
text1
##Inside
paddings
vst
##encode
perfom
##CIMAL
PuTT
elimination
usefulness
Sudden
##hint
MyType
Builds
##vars
195
iPhoneOS
0b
Hell
##uru
Blah
##FLAGS
##Helpers
East
##Batis
Ali
apc
Immediate
ESP
RTC
YARN
DECLARE
cha
nokia
MXML
##RPC
Moved
HSV
##xs
##isplay
##ceeded
Lift
alters
Align
##second
##plyr
Libre
##ActionSheet
JT
##RIB
IFoo
intercepts
strokes
toolkits
volley
Vimeo
xt
administer
Encaps
Accordion
##example
##eeper
Smtp
indenting
##ToInterfaceOrientation
##pendicular
SINGLE
IdP
keyframe
matt
##score
CAD
Fourier
Ring
cxx
##nis
uncon
##stick
TRY
Indent
tortoise
keyCode
##SSH
ServerSocket
PrintWriter
MAY
##uator
getBytes
paralle
Alam
##graphs
mimics
##aired
##ingerbread
AssemblyInfo
##Pi
inotify
sqlplus
##evelop
209
Transformation
inelegant
##eds
LZ
Ware
JSFIDDLE
##mann
rejecting
##Google
runOn
##azure
reacts
jstl
sess
insted
DataAnnotations
resemble
Meet
Tesseract
sided
getc
extender
Pipes
utterly
ZX
nail
##Hours
mys
boy
associates
##Configurer
perceived
fores
dub
rst
##bast
VisualSVN
ciphers
entitlements
GIS
sax
tan
##Cost
invokeLater
ROLL
LOGIN
##vexpress
##ypie
substitutions
subtracted
Programmatically
Caliburn
##7b
opencart
##merge
vmware
hostnames
pushState
003
DSP
##main
##204
Compatible
NG
artefact
Stub
Shutdown
bone
beep
##OrUpdate
##KEY
jsoup
SQLITE
##Permissions
##Cor
acron
GLUT
nanoseconds
AE
##Router
unamb
##mless
##ATURE
##tesy
unescaped
1k
WORD
evening
colliding
Authority
NodeList
##stop
Whole
histograms
Pane
allready
bye
##expl
jsref
Enums
1a
fno
##nami
##Future
spro
Datepicker
3a
##maker
league
suspecting
typo3
##Io
##isition
sidekiq
inventing
##mentedControl
kivy
AVR
Rot
wl
wakes
aval
designate
She
xsi
dplyr
rookie
##zes
Substring
tinyMCE
mirrored
liberty
Cit
ay
##808
roundt
PNGs
##plet
MainMenu
##223
##OWER
Deploying
Conversely
Van
misuse
##Blocks
Hyperlink
Marionette
Administrators
##allenge
##ema
depreciated
Project1
shoes
applescript
##Vars
Python2
Surprisingly
Symbian
Numer
myc
##ineTransform
##013
1800
ACID
orphaned
supposing
RequestContext
##Arguments
##flix
onBackPressed
territory
SITE
selectOne
##deploy
##Navigator
gvim
GK
##Updating
rv
##held
##bee
##puter
##VCS
REGEXP
##TreeView
##logn
doesna€™t
DECIMAL
redefining
knitr
Suddenly
h5
##application
##Commands
srand
III
##Authenticated
##users
##osc
InitializeComponent
noisy
##weigh
shading
1990
severely
coherent
HB
jm
Cookbook
paranoid
##udd
softwares
perpendicular
##Checkout
ansi
Drivers
##Violation
##Cs
Interaction
Paging
##F0
wrt
Protractor
flot
Nodejs
Digest
ConnectionString
Traffic
Perfect
FQ
##wa
reopening
SQLEXP
fours
##bertura
Physics
##lie
poo
unaff
##775
American
StackTrace
600px
getDefault
doesnat
Therefor
##308
FullName
##Printer
George
gaming
##rus
##Face
##izards
##gged
debuggers
Serializer
Drools
RNG
axd
overwhelming
Button1
born
perforce
accordance
competing
##330
subtypes
tablix
##tranet
psycopg2
##Ce
##wide
166
FAST
dosen
##Ratio
colum
unsaved
Uploading
Mars
##R1
Inbox
webgl
repro
Img
##bugs
datasheet
Memcache
informs
CHANG
##Launcher
##Presentation
Wednesday
ODP
slack
Box2D
Weather
TimerTask
Concaten
CCSprite
MediaElement
CERT
IComparable
fflush
HAML
##ORITY
FILENAME
ldpi
ENUM
recheck
##003
repost
harmless
##xp
##wg
spite
functors
##PLOY
HANDLE
##Pending
macbook
##166
UILabels
##Mvc
logistic
subsection
semester
Slack
Conceptually
Expert
MyData
Gnu
oscill
Lim
expiring
decodes
deserializer
pragmatic
campaigns
##aaaaaaaa
DFA
girl
val2
resuming
##Conn
h264
Cloudera
multibyte
##uitive
flips
choosen
playlists
DIRECTORY
Iv
OG
##ishing
##Arg
SETTING
Hotel
apidocs
BM
##333
Mutable
bm
##jmp
##Factor
Uniform
Shiny
##CursorAdapter
X86
complicates
ISNULL
Localization
PROV
encodeURIComponent
Wake
setopt
decompiler
derivation
Jax
flying
logos
decltype
precom
##fan
##pay
VS2017
assembled
eagerly
intrinsics
foremost
##bish
##lt
##aylor
endif
uploadify
calculus
Unity3D
pydev
UIViewControllers
##ainter
##Int32
Privacy
r0
findOne
Reinstall
mpeg
##cfg
irritating
##itates
##idable
##ureka
Stretch
decade
insists
Ultra
PHPStorm
football
flashes
##Branch
WID
resque
career
CountDown
aggregations
Ng
##012
definitively
##Scalar
Obtain
grandchild
reluctant
shel
OnLoad
UIPopover
flux
Payload
jnlp
##ims
##uracy
##umin
name2
arm64
Choosing
educated
##Characters
todays
##indi
Addendum
##pixel
ToolTip
stringWithFormat
printout
convertView
drift
dalvikvm
inevitably
fax
##Prom
##attribute
loadView
##cedure
spaghetti
Mu
##yote
##igs
Decorator
##CSV
steam
##aurant
##Radius
##jan
##704
venues
205
##504
mylist
TeX
billions
SUR
bands
##B1
dataflow
##124
231
##540
orchestration
Caches
##Pie
optimizes
##143
w3wp
GTM
unwieldy
##404
CRAN
Booking
df1
##Synchron
Ja
pound
##sk
##Remove
kub
##V2
outliers
Idle
xap
##S3
##Closed
##spoint
##ntl
stayed
smartphones
Experience
Helios
Wl
##Eclipse
P2P
f3
##ulo
antial
##standard
Bootstr
##FromString
##inished
outweigh
copyable
173
##Modification
BitmapFactory
##gestion
residual
BRO
Craw
Sans
h4
deemed
##Clean
hmm
theming
moodle
PInvoke
##BC
##edFile
ARP
Refact
CENTER
MAPI
beer
##platform
Networks
##AnimationFrame
Racket
Strictly
MMS
##Sk
defaultdict
Endpoints
TreeNode
bearer
diving
MainViewController
estate
##309
PyQt4
tlb
tilde
Dataflow
encrypts
Imports
MANY
Daemon
eBay
##1d
AppController
strncpy
ViewDidLoad
##internals
##kscape
##ositive
shuffled
unaffected
sud
##302
Analyze
dmg
FLOAT
30000
subsequence
distinguished
##Dem
fibon
linearlayout
uptime
machinery
OneToOne
OpenId
pastes
ctags
onTouchEvent
Tumblr
zh
##ocolate
##882
insignificant
progressively
WndProc
##ativity
##ardown
Common7
Cass
Sid
1ms
mate
##flight
reproduces
unchecking
unavoid
belongsTo
France
##global
stray
sitename
soundcloud
CLSID
baby
getLast
atan
##ServiceImpl
Interlocked
mismatched
dpkg
collaboration
mah
MyView
tn
##zi
##imedia
offload
##ismatch
##websites
HDF5
accomodate
Bamboo
##Zero
varied
rephrase
signaling
Illustrator
##ariate
mods
##108
CSP
augmented
Admob
864
domin
Sugar
Money
##Pref
paramter
198
capitalization
Credential
currentTimeMillis
##udo
##506
anchored
Broad
normalizing
Supposing
##202
ABCD
##repo
##vector
Bezier
bookings
multimedia
EACH
Factor
heter
##aar
IBOutlets
slideUp
summarized
C89
Liber
offs
automaticly
seekbar
Todo
quirksmode
FATAL
##jour
movable
interleaved
spurious
Discovery
tmpl
##Mi
15px
TableModel
HIGH
PAY
method1
triples
button2
swarm
multiplies
JPanels
PartialView
Fully
##Migr
##che
getResources
crosses
torrent
Insights
revers
##linear
European
##uy
##bstract
##hoc
##qualified
Lesson
Li
##imon
counterparts
ProductID
##eremy
joe
undirected
selectbox
BIRT
Fut
Jose
jt
tape
100MB
##Real
Intuit
C2D
justification
pycharm
apartment
##Autow
##bolinks
##authenticated
vh
##amodel
ASN
##ROOT
traversed
cycling
INSTALLED
evt
revisit
Cached
159
Gerrit
JSE
typesafe
SubS
##esse
##umen
##190
TEXTURE
##monkey
gpg
eloquent
##osals
Needs
BindingSource
Restriction
prohibited
BUTTON
geographic
##poration
##Weight
inexperienced
erl
##Jobs
gst
App1
##Quick
unboxing
Caveat
NER
##ett
string2
NSBundle
Win8
CFBundle
483
##allows
Virt
bumped
##aux
##cluster
crate
dir1
##formatted
synthesis
Gear
##unnel
repack
##ISP
Verb
enlarg
Flight
IMy
Delta
##Carousel
q1
##Mine
withObject
userform
##LEX
snipped
178
skewed
bow
163
lighttpd
##Compiler
##istency
406
1m
##uated
Reachability
devcenter
LEVEL
12c
img1
glTex
##echart
Editors
truncates
##Kb
absurd
213
unhelp
appreciable
##orton
RESP
185
asynch
SaaS
ros
vogella
appstore
dandy
withEvent
obj2
damaged
disassemble
AOSP
NavigationController
webmethod
assessment
Cancellation
importer
nickname
0th
waypoints
multiplications
discriminator
breadcrumbs
##iates
##Ml
Starts
amended
DataMember
radar
DAOs
unloading
Moment
##Middle
evolved
plugging
##Material
WANT
##esto
215
I´ve
##OwnProperty
durable
##eties
upward
##imming
oversight
Appointment
##804
TOTAL
somefile
plant
webrtc
groupings
SysW
tiled
barriers
Conversation
ENG
##overed
targetSdkVersion
Grade
##ependent
Elapsed
asterisks
##r2
##emption
##INFO
timely
UISplit
tutorialspoint
Clos
wildly
##Desktop
##PAR
managedObjectContext
atomicity
Situation
neurons
##stats
##Chars
organizer
hoops
invalidating
Page1
OTP
forc
quotations
##Applet
179
WORKING
ling
comming
##ItemSelected
CORE
sourcing
gyro
unambiguous
iBeacon
##ida
MDM
##naire
ocaml
obstacles
##LA
G2
serif
Machines
jdt
extrap
UserDetails
##Designer
Bring
joda
##lider
CustomerID
RedirectTo
##title
##Pdf
##stuff
SIGINT
##Generated
##arry
proccess
imageNamed
Optimize
##Dependencies
Counting
PAT
WAY
##switch
affiliate
##wire
myMethod
view1
gaussian
0x6
##890
appealing
pardon
##ooks
maxlength
ears
Invest
RC1
Faster
lays
moc
##JavaScript
Admittedly
##sockets
wildfly
Facelets
cloudfront
versatile
SerialPort
clashes
Players
Mocha
Carousel
datastructure
BCL
158
##property
radial
viz
REFERER
Bower
##ITH
OneDrive
opponent
disassemb
locationManager
painless
SCREEN
##branch
healthy
##UC
Nowadays
CLICK
Transact
Matthew
AID
##machine
interior
IPhone
##handle
ghci
CAR
##peed
10MB
obtains
Domains
bw
233
Foreground
apologise
lens
##asse
chicken
##UserControl
##Playback
PMD
##Restore
stemming
Kal
Pac
##NR
buzz
converge
duty
Jane
Moodle
WI
auction
stencil
downward
banking
averaging
##worthy
ZERO
##did
word2
##Seconds
CQRS
QThread
tif
##ocket
VisualVM
PostBack
NumberFormatException
SQLEXPRESS
Cam
tod
cup
jd
appcelerator
triangulation
impressed
preca
knife
Turned
##components
##ERP
AS2
##329
##809
ERB
exchanges
##Normal
##alan
curved
infact
deduct
ATM
SelectionChanged
##ArrayList
##Workspace
increasingly
##ycles
##2003
utc
renderers
enumerations
destructive
methode
IMPORTANT
SUBSTRING
AKA
libav
FragmentManager
Gregorian
Euclidean
Triangle
yank
##Dep
upsert
THAN
lifted
Crockford
##imple
opcodes
##coin
##qs
Intranet
mustache
atoms
Fourth
myth
ie7
Watir
OnPaint
100s
##FileChooser
Honeycomb
serially
##ambur
Enumeration
Proguard
tablespace
##322
##impse
ByVal
DocumentRoot
EndDate
resharper
311
APE
##DataAdapter
40px
autowire
STORAGE
SubSonic
Nets
##SOR
##thest
revealing
neighborhood
ellipses
Dur
issuer
precious
compressor
N2
##KDF
getX
Disadvant
parallelization
ExpandableListView
SLF4J
Treat
iphones
##WW
misplaced
167
Subsequ
func1
Pear
htac
image2
URLClassLoader
Easier
DK
##B0
triangular
formatters
StyleCop
intuitively
Q3
##Dates
JX
Offer
RPG
##Da
##cludes
100x100
Journal
QTP
##Footer
##atement
##ledg
Moose
minimizes
##Article
pageload
pyqt
builtins
Combined
proportions
Esp
##Sections
issuec
Windows7
##spaces
templat
194
##UserName
##iwyg
Male
##assigned
##Contrib
hunting
##PK
ifconfig
imaging
implying
PySide
##TRAN
##CAP
##stock
habits
##oph
amateur
multitude
obl
drools
falsy
Hazelcast
issuecomment
##Azure
yeoman
Alamofire
Subtract
loadClass
[...]
